#include "magic_wand_model_data.h"


// We need to keep the data array aligned on some architectures.

#ifdef __has_attribute

#define HAVE_ATTRIBUTE(x) __has_attribute(x)

#else

#define HAVE_ATTRIBUTE(x) 0

#endif

#if HAVE_ATTRIBUTE(aligned) || (defined(__GNUC__) && !defined(__clang__))

#define DATA_ALIGN_ATTRIBUTE __attribute__((aligned(4)))

#else

#define DATA_ALIGN_ATTRIBUTE

#endif


const unsigned char g_magic_wand_model_data[] DATA_ALIGN_ATTRIBUTE = {
// unsigned char _home_ee2405_ee2405_mbed_7_model_model_tflite[] = {
  0x08, 0x00, 0x00, 0x00, 0x54, 0x46, 0x4c, 0x33, 0x62, 0xff, 0xff, 0xff,
  0x03, 0x00, 0x00, 0x00, 0x10, 0x00, 0x00, 0x00, 0x24, 0x00, 0x00, 0x00,
  0x78, 0x00, 0x00, 0x00, 0x24, 0x00, 0x00, 0x00, 0x05, 0x00, 0x00, 0x00,
  0x78, 0x05, 0x00, 0x00, 0xb0, 0x04, 0x00, 0x00, 0xe0, 0x02, 0x00, 0x00,
  0x60, 0x02, 0x00, 0x00, 0x54, 0x01, 0x00, 0x00, 0x01, 0x00, 0x00, 0x00,
  0x78, 0x00, 0x00, 0x00, 0x13, 0x00, 0x00, 0x00, 0x18, 0x30, 0x00, 0x00,
  0x14, 0x30, 0x00, 0x00, 0x20, 0x2f, 0x00, 0x00, 0xa8, 0x2e, 0x00, 0x00,
  0x3c, 0x2e, 0x00, 0x00, 0xec, 0x11, 0x00, 0x00, 0x98, 0x10, 0x00, 0x00,
  0xbc, 0x0e, 0x00, 0x00, 0x60, 0x06, 0x00, 0x00, 0xfc, 0x05, 0x00, 0x00,
  0x78, 0x05, 0x00, 0x00, 0xec, 0x2f, 0x00, 0x00, 0xe8, 0x2f, 0x00, 0x00,
  0xe4, 0x2f, 0x00, 0x00, 0xe0, 0x2f, 0x00, 0x00, 0xdc, 0x2f, 0x00, 0x00,
  0xd8, 0x2f, 0x00, 0x00, 0xd4, 0x2f, 0x00, 0x00, 0xd0, 0x2f, 0x00, 0x00,
  0x0f, 0x00, 0x00, 0x00, 0x4d, 0x4c, 0x49, 0x52, 0x20, 0x43, 0x6f, 0x6e,
  0x76, 0x65, 0x72, 0x74, 0x65, 0x64, 0x2e, 0x00, 0x00, 0x00, 0x0e, 0x00,
  0x18, 0x00, 0x04, 0x00, 0x08, 0x00, 0x0c, 0x00, 0x10, 0x00, 0x14, 0x00,
  0x0e, 0x00, 0x00, 0x00, 0x14, 0x00, 0x00, 0x00, 0x5c, 0x00, 0x00, 0x00,
  0x60, 0x00, 0x00, 0x00, 0x64, 0x00, 0x00, 0x00, 0x84, 0x00, 0x00, 0x00,
  0x12, 0x00, 0x00, 0x00, 0x48, 0x2f, 0x00, 0x00, 0xe4, 0x2e, 0x00, 0x00,
  0x3c, 0x2e, 0x00, 0x00, 0xd8, 0x2d, 0x00, 0x00, 0x70, 0x2d, 0x00, 0x00,
  0x1c, 0x11, 0x00, 0x00, 0xc0, 0x0f, 0x00, 0x00, 0xe4, 0x0d, 0x00, 0x00,
  0xa0, 0x05, 0x00, 0x00, 0x3c, 0x05, 0x00, 0x00, 0xb0, 0x04, 0x00, 0x00,
  0xe8, 0x03, 0x00, 0x00, 0x38, 0x03, 0x00, 0x00, 0xa4, 0x02, 0x00, 0x00,
  0x10, 0x02, 0x00, 0x00, 0x90, 0x01, 0x00, 0x00, 0xfc, 0x00, 0x00, 0x00,
  0x80, 0x00, 0x00, 0x00, 0x01, 0x00, 0x00, 0x00, 0x00, 0x00, 0x00, 0x00,
  0x01, 0x00, 0x00, 0x00, 0x11, 0x00, 0x00, 0x00, 0x08, 0x00, 0x00, 0x00,
  0x1c, 0x04, 0x00, 0x00, 0x58, 0x03, 0x00, 0x00, 0xc8, 0x02, 0x00, 0x00,
  0x24, 0x02, 0x00, 0x00, 0xac, 0x01, 0x00, 0x00, 0x10, 0x01, 0x00, 0x00,
  0x94, 0x00, 0x00, 0x00, 0x10, 0x00, 0x00, 0x00, 0x04, 0x00, 0x00, 0x00,
  0x6d, 0x61, 0x69, 0x6e, 0x00, 0x00, 0x00, 0x00, 0x8e, 0xff, 0xff, 0xff,
  0x00, 0x00, 0x00, 0x09, 0x04, 0x00, 0x00, 0x00, 0x1c, 0x00, 0x00, 0x00,
  0x10, 0x00, 0x00, 0x00, 0x04, 0x00, 0x00, 0x00, 0x0a, 0xd2, 0xff, 0xff,
  0x00, 0x00, 0x80, 0x3f, 0x01, 0x00, 0x00, 0x00, 0x11, 0x00, 0x00, 0x00,
  0x01, 0x00, 0x00, 0x00, 0x10, 0x00, 0x00, 0x00, 0xf6, 0xfb, 0xff, 0xff,
  0x00, 0x00, 0x00, 0x19, 0x01, 0x00, 0x00, 0x00, 0x8a, 0xd1, 0xff, 0xff,
  0x10, 0x00, 0x00, 0x00, 0x12, 0x00, 0x00, 0x00, 0x14, 0x00, 0x00, 0x00,
  0x20, 0x00, 0x00, 0x00, 0x02, 0x00, 0x00, 0x00, 0x01, 0x00, 0x00, 0x00,
  0x04, 0x00, 0x00, 0x00, 0x08, 0x00, 0x00, 0x00, 0x49, 0x64, 0x65, 0x6e,
  0x74, 0x69, 0x74, 0x79, 0x00, 0x00, 0x00, 0x00, 0xc4, 0xd1, 0xff, 0xff,
  0x00, 0x00, 0x0e, 0x00, 0x18, 0x00, 0x08, 0x00, 0x0c, 0x00, 0x10, 0x00,
  0x07, 0x00, 0x14, 0x00, 0x0e, 0x00, 0x00, 0x00, 0x00, 0x00, 0x00, 0x08,
  0x03, 0x00, 0x00, 0x00, 0x18, 0x00, 0x00, 0x00, 0x0c, 0x00, 0x00, 0x00,
  0x04, 0x00, 0x00, 0x00, 0x98, 0xd1, 0xff, 0xff, 0x01, 0x00, 0x00, 0x00,
  0x10, 0x00, 0x00, 0x00, 0x03, 0x00, 0x00, 0x00, 0x0f, 0x00, 0x00, 0x00,
  0x05, 0x00, 0x00, 0x00, 0x02, 0x00, 0x00, 0x00, 0x02, 0xd2, 0xff, 0xff,
  0x10, 0x00, 0x00, 0x00, 0x11, 0x00, 0x00, 0x00, 0x14, 0x00, 0x00, 0x00,
  0x30, 0x00, 0x00, 0x00, 0x02, 0x00, 0x00, 0x00, 0x01, 0x00, 0x00, 0x00,
  0x04, 0x00, 0x00, 0x00, 0x1a, 0x00, 0x00, 0x00, 0x73, 0x65, 0x71, 0x75,
  0x65, 0x6e, 0x74, 0x69, 0x61, 0x6c, 0x2f, 0x64, 0x65, 0x6e, 0x73, 0x65,
  0x5f, 0x31, 0x2f, 0x42, 0x69, 0x61, 0x73, 0x41, 0x64, 0x64, 0x00, 0x00,
  0xf4, 0xd1, 0xff, 0xff, 0xd6, 0xfd, 0xff, 0xff, 0x00, 0x00, 0x00, 0x08,
  0x03, 0x00, 0x00, 0x00, 0x24, 0x00, 0x00, 0x00, 0x18, 0x00, 0x00, 0x00,
  0x0c, 0x00, 0x00, 0x00, 0x00, 0x00, 0x06, 0x00, 0x08, 0x00, 0x07, 0x00,
  0x06, 0x00, 0x00, 0x00, 0x00, 0x00, 0x00, 0x01, 0x01, 0x00, 0x00, 0x00,
  0x0f, 0x00, 0x00, 0x00, 0x03, 0x00, 0x00, 0x00, 0x0e, 0x00, 0x00, 0x00,
  0x04, 0x00, 0x00, 0x00, 0x01, 0x00, 0x00, 0x00, 0xfe, 0xfc, 0xff, 0xff,
  0x00, 0x00, 0x00, 0x09, 0x01, 0x00, 0x00, 0x00, 0x92, 0xd2, 0xff, 0xff,
  0x10, 0x00, 0x00, 0x00, 0x10, 0x00, 0x00, 0x00, 0x14, 0x00, 0x00, 0x00,
  0x2c, 0x00, 0x00, 0x00, 0x02, 0x00, 0x00, 0x00, 0x01, 0x00, 0x00, 0x00,
  0x10, 0x00, 0x00, 0x00, 0x15, 0x00, 0x00, 0x00, 0x73, 0x65, 0x71, 0x75,
  0x65, 0x6e, 0x74, 0x69, 0x61, 0x6c, 0x2f, 0x64, 0x65, 0x6e, 0x73, 0x65,
  0x2f, 0x52, 0x65, 0x6c, 0x75, 0x00, 0x00, 0x00, 0xd8, 0xd2, 0xff, 0xff,
  0x00, 0x00, 0x0a, 0x00, 0x10, 0x00, 0x04, 0x00, 0x08, 0x00, 0x0c, 0x00,
  0x0a, 0x00, 0x00, 0x00, 0x02, 0x00, 0x00, 0x00, 0x10, 0x00, 0x00, 0x00,
  0x04, 0x00, 0x00, 0x00, 0x01, 0x00, 0x00, 0x00, 0x0e, 0x00, 0x00, 0x00,
  0x02, 0x00, 0x00, 0x00, 0x0d, 0x00, 0x00, 0x00, 0x03, 0x00, 0x00, 0x00,
  0x7a, 0xfd, 0xff, 0xff, 0x00, 0x00, 0x00, 0x16, 0x01, 0x00, 0x00, 0x00,
  0x0e, 0xd3, 0xff, 0xff, 0x10, 0x00, 0x00, 0x00, 0x0f, 0x00, 0x00, 0x00,
  0x14, 0x00, 0x00, 0x00, 0x30, 0x00, 0x00, 0x00, 0x02, 0x00, 0x00, 0x00,
  0x01, 0x00, 0x00, 0x00, 0x70, 0x00, 0x00, 0x00, 0x1a, 0x00, 0x00, 0x00,
  0x73, 0x65, 0x71, 0x75, 0x65, 0x6e, 0x74, 0x69, 0x61, 0x6c, 0x2f, 0x66,
  0x6c, 0x61, 0x74, 0x74, 0x65, 0x6e, 0x2f, 0x52, 0x65, 0x73, 0x68, 0x61,
  0x70, 0x65, 0x00, 0x00, 0x00, 0xd3, 0xff, 0xff, 0xe2, 0xfe, 0xff, 0xff,
  0x00, 0x00, 0x00, 0x05, 0x01, 0x00, 0x00, 0x00, 0x38, 0x00, 0x00, 0x00,
  0x2c, 0x00, 0x00, 0x00, 0x14, 0x00, 0x00, 0x00, 0x00, 0x00, 0x0e, 0x00,
  0x14, 0x00, 0x00, 0x00, 0x10, 0x00, 0x0c, 0x00, 0x08, 0x00, 0x04, 0x00,
  0x0e, 0x00, 0x00, 0x00, 0x03, 0x00, 0x00, 0x00, 0x01, 0x00, 0x00, 0x00,
  0x03, 0x00, 0x00, 0x00, 0x01, 0x00, 0x00, 0x00, 0x01, 0x00, 0x00, 0x00,
  0x0d, 0x00, 0x00, 0x00, 0x01, 0x00, 0x00, 0x00, 0x0c, 0x00, 0x00, 0x00,
  0x9e, 0xd3, 0xff, 0xff, 0x10, 0x00, 0x00, 0x00, 0x0e, 0x00, 0x00, 0x00,
  0x1c, 0x00, 0x00, 0x00, 0x40, 0x00, 0x00, 0x00, 0x04, 0x00, 0x00, 0x00,
  0x01, 0x00, 0x00, 0x00, 0x07, 0x00, 0x00, 0x00, 0x01, 0x00, 0x00, 0x00,
  0x10, 0x00, 0x00, 0x00, 0x22, 0x00, 0x00, 0x00, 0x73, 0x65, 0x71, 0x75,
  0x65, 0x6e, 0x74, 0x69, 0x61, 0x6c, 0x2f, 0x6d, 0x61, 0x78, 0x5f, 0x70,
  0x6f, 0x6f, 0x6c, 0x69, 0x6e, 0x67, 0x32, 0x64, 0x5f, 0x31, 0x2f, 0x4d,
  0x61, 0x78, 0x50, 0x6f, 0x6f, 0x6c, 0x00, 0x00, 0xa0, 0xd3, 0xff, 0xff,
  0xc2, 0xfe, 0xff, 0xff, 0x00, 0x00, 0x00, 0x01, 0x24, 0x00, 0x00, 0x00,
  0x18, 0x00, 0x00, 0x00, 0x04, 0x00, 0x00, 0x00, 0xb4, 0xfe, 0xff, 0xff,
  0x01, 0x00, 0x00, 0x00, 0x01, 0x00, 0x00, 0x00, 0x00, 0x00, 0x00, 0x01,
  0x01, 0x00, 0x00, 0x00, 0x0c, 0x00, 0x00, 0x00, 0x03, 0x00, 0x00, 0x00,
  0x0b, 0x00, 0x00, 0x00, 0x07, 0x00, 0x00, 0x00, 0x09, 0x00, 0x00, 0x00,
  0x2e, 0xd4, 0xff, 0xff, 0x10, 0x00, 0x00, 0x00, 0x0d, 0x00, 0x00, 0x00,
  0x1c, 0x00, 0x00, 0x00, 0x2c, 0x00, 0x00, 0x00, 0x04, 0x00, 0x00, 0x00,
  0x01, 0x00, 0x00, 0x00, 0x15, 0x00, 0x00, 0x00, 0x01, 0x00, 0x00, 0x00,
  0x10, 0x00, 0x00, 0x00, 0x0c, 0x00, 0x00, 0x00, 0x74, 0x66, 0x6c, 0x2e,
  0x63, 0x6f, 0x6e, 0x76, 0x5f, 0x32, 0x64, 0x31, 0x00, 0x00, 0x00, 0x00,
  0x74, 0xd4, 0xff, 0xff, 0x00, 0x00, 0x0e, 0x00, 0x1a, 0x00, 0x08, 0x00,
  0x0c, 0x00, 0x10, 0x00, 0x07, 0x00, 0x14, 0x00, 0x0e, 0x00, 0x00, 0x00,
  0x00, 0x00, 0x00, 0x05, 0x01, 0x00, 0x00, 0x00, 0x3c, 0x00, 0x00, 0x00,
  0x30, 0x00, 0x00, 0x00, 0x14, 0x00, 0x00, 0x00, 0x00, 0x00, 0x0e, 0x00,
  0x18, 0x00, 0x17, 0x00, 0x10, 0x00, 0x0c, 0x00, 0x08, 0x00, 0x04, 0x00,
  0x0e, 0x00, 0x00, 0x00, 0x03, 0x00, 0x00, 0x00, 0x03, 0x00, 0x00, 0x00,
  0x03, 0x00, 0x00, 0x00, 0x03, 0x00, 0x00, 0x00, 0x00, 0x00, 0x00, 0x01,
  0x01, 0x00, 0x00, 0x00, 0x0b, 0x00, 0x00, 0x00, 0x01, 0x00, 0x00, 0x00,
  0x0a, 0x00, 0x00, 0x00, 0x46, 0xff, 0xff, 0xff, 0x00, 0x00, 0x00, 0x11,
  0x01, 0x00, 0x00, 0x00, 0xda, 0xd4, 0xff, 0xff, 0x10, 0x00, 0x00, 0x00,
  0x0c, 0x00, 0x00, 0x00, 0x1c, 0x00, 0x00, 0x00, 0x40, 0x00, 0x00, 0x00,
  0x04, 0x00, 0x00, 0x00, 0x01, 0x00, 0x00, 0x00, 0x15, 0x00, 0x00, 0x00,
  0x01, 0x00, 0x00, 0x00, 0x08, 0x00, 0x00, 0x00, 0x20, 0x00, 0x00, 0x00,
  0x73, 0x65, 0x71, 0x75, 0x65, 0x6e, 0x74, 0x69, 0x61, 0x6c, 0x2f, 0x6d,
  0x61, 0x78, 0x5f, 0x70, 0x6f, 0x6f, 0x6c, 0x69, 0x6e, 0x67, 0x32, 0x64,
  0x2f, 0x4d, 0x61, 0x78, 0x50, 0x6f, 0x6f, 0x6c, 0x00, 0x00, 0x00, 0x00,
  0x34, 0xd5, 0xff, 0xff, 0x00, 0x00, 0x0e, 0x00, 0x14, 0x00, 0x00, 0x00,
  0x08, 0x00, 0x0c, 0x00, 0x07, 0x00, 0x10, 0x00, 0x0e, 0x00, 0x00, 0x00,
  0x00, 0x00, 0x00, 0x01, 0x30, 0x00, 0x00, 0x00, 0x24, 0x00, 0x00, 0x00,
  0x10, 0x00, 0x00, 0x00, 0x0c, 0x00, 0x10, 0x00, 0x00, 0x00, 0x04, 0x00,
  0x08, 0x00, 0x0f, 0x00, 0x0c, 0x00, 0x00, 0x00, 0x01, 0x00, 0x00, 0x00,
  0x01, 0x00, 0x00, 0x00, 0x00, 0x00, 0x00, 0x01, 0x01, 0x00, 0x00, 0x00,
  0x0a, 0x00, 0x00, 0x00, 0x03, 0x00, 0x00, 0x00, 0x00, 0x00, 0x00, 0x00,
  0x06, 0x00, 0x00, 0x00, 0x08, 0x00, 0x00, 0x00, 0x00, 0x00, 0x0a, 0x00,
  0x0c, 0x00, 0x07, 0x00, 0x00, 0x00, 0x08, 0x00, 0x0a, 0x00, 0x00, 0x00,
  0x00, 0x00, 0x00, 0x03, 0x01, 0x00, 0x00, 0x00, 0x9e, 0xd5, 0xff, 0xff,
  0x10, 0x00, 0x00, 0x00, 0x0b, 0x00, 0x00, 0x00, 0x1c, 0x00, 0x00, 0x00,
  0x28, 0x00, 0x00, 0x00, 0x04, 0x00, 0x00, 0x00, 0x01, 0x00, 0x00, 0x00,
  0x40, 0x00, 0x00, 0x00, 0x03, 0x00, 0x00, 0x00, 0x08, 0x00, 0x00, 0x00,
  0x0b, 0x00, 0x00, 0x00, 0x74, 0x66, 0x6c, 0x2e, 0x63, 0x6f, 0x6e, 0x76,
  0x5f, 0x32, 0x64, 0x00, 0x88, 0xd5, 0xff, 0xff, 0x7e, 0xd6, 0xff, 0xff,
  0x04, 0x00, 0x00, 0x00, 0x40, 0x00, 0x00, 0x00, 0xdf, 0xe0, 0x9e, 0xbc,
  0xa8, 0xd5, 0x1a, 0xbf, 0xf0, 0x1e, 0xe1, 0xbd, 0xe7, 0x68, 0xb3, 0xbf,
  0x8d, 0xcc, 0x04, 0xc0, 0x44, 0xbf, 0x35, 0x41, 0x87, 0x7f, 0x28, 0xc0,
  0xd1, 0x00, 0xdd, 0xbc, 0x01, 0x45, 0x6c, 0xbf, 0xa4, 0xbf, 0xeb, 0x3d,
  0x8a, 0x48, 0x8a, 0xbf, 0xf0, 0x6a, 0x15, 0xbc, 0x75, 0x83, 0x97, 0x3f,
  0x69, 0x71, 0x05, 0xc0, 0xd8, 0x4f, 0x83, 0xbf, 0x1b, 0x4d, 0x80, 0xbf,
  0x26, 0xd6, 0xff, 0xff, 0x10, 0x00, 0x00, 0x00, 0x0a, 0x00, 0x00, 0x00,
  0x10, 0x00, 0x00, 0x00, 0x20, 0x00, 0x00, 0x00, 0x01, 0x00, 0x00, 0x00,
  0x10, 0x00, 0x00, 0x00, 0x0d, 0x00, 0x00, 0x00, 0x73, 0x74, 0x64, 0x2e,
  0x63, 0x6f, 0x6e, 0x73, 0x74, 0x61, 0x6e, 0x74, 0x31, 0x00, 0x00, 0x00,
  0x08, 0xd6, 0xff, 0xff, 0xfe, 0xd6, 0xff, 0xff, 0x04, 0x00, 0x00, 0x00,
  0x20, 0x00, 0x00, 0x00, 0xd9, 0x7f, 0xd7, 0xbe, 0xa5, 0xf8, 0xfd, 0xbf,
  0x79, 0xac, 0x20, 0xbf, 0x48, 0x55, 0x16, 0xc0, 0x31, 0xbd, 0xcf, 0xbf,
  0x2a, 0x2e, 0x98, 0xbf, 0xa7, 0x35, 0x2f, 0xc0, 0x7e, 0xe1, 0x12, 0xc0,
  0x86, 0xd6, 0xff, 0xff, 0x10, 0x00, 0x00, 0x00, 0x09, 0x00, 0x00, 0x00,
  0x10, 0x00, 0x00, 0x00, 0x20, 0x00, 0x00, 0x00, 0x01, 0x00, 0x00, 0x00,
  0x08, 0x00, 0x00, 0x00, 0x0c, 0x00, 0x00, 0x00, 0x73, 0x74, 0x64, 0x2e,
  0x63, 0x6f, 0x6e, 0x73, 0x74, 0x61, 0x6e, 0x74, 0x00, 0x00, 0x00, 0x00,
  0x68, 0xd6, 0xff, 0xff, 0x5e, 0xd7, 0xff, 0xff, 0x04, 0x00, 0x00, 0x00,
  0x00, 0x08, 0x00, 0x00, 0xa9, 0x1f, 0x0b, 0xbe, 0x7f, 0x29, 0xf6, 0xbb,
  0x9f, 0xd4, 0x89, 0xbc, 0x36, 0x89, 0x12, 0x3f, 0x06, 0x8d, 0xc3, 0xbc,
  0x14, 0x65, 0x85, 0xbc, 0xd7, 0xa2, 0xc2, 0x3c, 0x56, 0x04, 0xc1, 0x3d,
  0x49, 0x5e, 0x35, 0xbe, 0x48, 0xbc, 0x3e, 0x3d, 0x44, 0x9f, 0xf8, 0xbc,
  0x4d, 0xab, 0xf4, 0xbd, 0x8d, 0x95, 0x62, 0xbd, 0xd5, 0x69, 0x8a, 0xbd,
  0x86, 0x90, 0x1f, 0x3e, 0x11, 0xe5, 0x86, 0x3d, 0xe2, 0xe0, 0x95, 0xbe,
  0x64, 0x5a, 0x98, 0xbd, 0xcb, 0xa1, 0x95, 0xbc, 0xe2, 0xba, 0x42, 0x3e,
  0x85, 0x75, 0x1a, 0xbe, 0xf2, 0x3c, 0xe0, 0x3c, 0x0e, 0x87, 0x61, 0xbb,
  0x30, 0x1d, 0x03, 0x3f, 0xf6, 0x5f, 0x93, 0xbe, 0x9b, 0x10, 0x02, 0xbe,
  0x62, 0x89, 0x74, 0xbd, 0x36, 0xc5, 0xc0, 0x3c, 0x79, 0x0d, 0x0a, 0xbe,
  0x2a, 0x63, 0x82, 0xba, 0x05, 0xb2, 0x83, 0x3e, 0xbd, 0xe1, 0x8f, 0x3d,
  0x37, 0x96, 0x6c, 0xbd, 0xe7, 0x24, 0xbf, 0x3d, 0x19, 0xa1, 0x5b, 0x3d,
  0x5b, 0x3a, 0x48, 0xbe, 0xc8, 0xc2, 0x12, 0x3f, 0xa5, 0xcd, 0xf2, 0x3c,
  0xae, 0x29, 0x44, 0x3d, 0xed, 0x34, 0x1d, 0x3d, 0x0e, 0xe7, 0x03, 0xbe,
  0xe5, 0xf3, 0x7a, 0x3d, 0x85, 0x21, 0x7f, 0xbc, 0xc8, 0x6b, 0x8e, 0xbd,
  0x86, 0x20, 0xc2, 0xbd, 0x14, 0x4c, 0xbf, 0xbd, 0x9a, 0x68, 0xce, 0x3d,
  0x1d, 0x66, 0x82, 0x3e, 0x88, 0xf8, 0x99, 0xbd, 0x76, 0xe1, 0x95, 0xbd,
  0xec, 0x0d, 0x76, 0xbd, 0x74, 0x8f, 0xd6, 0x3d, 0x6e, 0x79, 0x03, 0xbe,
  0xb5, 0x11, 0x23, 0xbe, 0x48, 0x63, 0x92, 0x3e, 0xba, 0x3d, 0x8a, 0xbe,
  0x73, 0xae, 0xc2, 0xbd, 0x13, 0x9b, 0x33, 0xbe, 0xab, 0x97, 0x93, 0xbd,
  0x3d, 0x54, 0x74, 0x3d, 0xe0, 0xdb, 0x13, 0xbe, 0xaf, 0xbc, 0x42, 0xbe,
  0xb5, 0x63, 0xaf, 0x3d, 0x97, 0x69, 0xa7, 0xbe, 0x09, 0x25, 0xe1, 0x3e,
  0x9c, 0xeb, 0x44, 0xbd, 0xdd, 0x33, 0xf1, 0xbd, 0x6f, 0x00, 0xed, 0x3c,
  0x01, 0x25, 0xea, 0xbd, 0xb3, 0xd1, 0xb7, 0x3e, 0x95, 0xc4, 0x08, 0xbd,
  0xc5, 0xae, 0x9b, 0x3c, 0xaa, 0x24, 0xc6, 0xbd, 0x99, 0x4d, 0x9d, 0x3b,
  0x59, 0xd6, 0xf2, 0xbd, 0xbe, 0x72, 0xbf, 0xbc, 0xba, 0x65, 0x7e, 0xbc,
  0xf3, 0xa7, 0x1d, 0xbd, 0x11, 0xbd, 0xd3, 0xbb, 0x8f, 0x3b, 0x08, 0x3c,
  0xd1, 0x15, 0x1b, 0x3e, 0x3e, 0xc5, 0xc1, 0xbd, 0x60, 0x31, 0xfc, 0xbd,
  0x66, 0x02, 0xb5, 0x3d, 0x55, 0xdb, 0x3d, 0xbd, 0x39, 0xa9, 0x16, 0xbe,
  0x43, 0x37, 0x78, 0x3c, 0xc7, 0xef, 0xd3, 0x3c, 0x9c, 0xda, 0x80, 0x3c,
  0xc8, 0xa7, 0x94, 0xbd, 0x94, 0x4b, 0x20, 0xbe, 0x01, 0xfd, 0x0d, 0x3d,
  0x67, 0xb7, 0xab, 0xbd, 0x58, 0x02, 0x78, 0x3e, 0x87, 0x29, 0x19, 0x3d,
  0xa3, 0xff, 0x85, 0xbc, 0x60, 0x95, 0x94, 0xbe, 0x1d, 0x8a, 0xbe, 0xbd,
  0xe1, 0xbb, 0x07, 0xbd, 0x68, 0x16, 0x23, 0x3e, 0x7e, 0xe9, 0xaa, 0xbe,
  0x29, 0x09, 0x82, 0xbd, 0x16, 0x03, 0xa6, 0x3e, 0x57, 0xf7, 0x96, 0x3d,
  0xde, 0x12, 0x18, 0xbf, 0x94, 0xed, 0x9f, 0xbf, 0x86, 0x01, 0x72, 0x3c,
  0xe3, 0x5f, 0x44, 0x3b, 0x4b, 0xa7, 0xb8, 0xbf, 0xda, 0x59, 0x2d, 0xbd,
  0xe2, 0xba, 0x5c, 0x3e, 0x69, 0x9e, 0xc5, 0xbe, 0x7a, 0xa6, 0xc4, 0xbc,
  0x12, 0x57, 0xd9, 0xbc, 0xc6, 0xf4, 0x5f, 0xbb, 0x88, 0x51, 0x10, 0xbe,
  0x26, 0xd0, 0x85, 0x3d, 0x24, 0x39, 0x0f, 0xbe, 0x72, 0x5b, 0xbf, 0xbe,
  0x05, 0xa9, 0x9b, 0x3e, 0xf8, 0x72, 0xa0, 0x3c, 0xbb, 0x1d, 0x93, 0x3e,
  0x37, 0x4b, 0x65, 0xbd, 0x92, 0x0a, 0x44, 0xbe, 0x66, 0xa7, 0xd2, 0x3d,
  0x37, 0x06, 0xa4, 0xbd, 0x3d, 0xa1, 0x65, 0xbe, 0x90, 0x52, 0x61, 0x3e,
  0xbb, 0x16, 0x10, 0xbf, 0x58, 0x0b, 0xfe, 0xbe, 0xf0, 0x68, 0x5d, 0x3d,
  0xac, 0x4f, 0x92, 0x3e, 0x42, 0xb5, 0x2c, 0xbf, 0x84, 0x85, 0x80, 0x3d,
  0x7e, 0x7b, 0x8b, 0x3c, 0xc0, 0xab, 0x07, 0xbe, 0x2c, 0x8e, 0x43, 0xbe,
  0x95, 0x91, 0xe0, 0xbe, 0x08, 0xf7, 0xd9, 0xbe, 0xb9, 0xd6, 0x45, 0xbe,
  0x23, 0x2f, 0xd9, 0xbe, 0x14, 0x4b, 0x2e, 0xbd, 0xd4, 0x42, 0x83, 0x3e,
  0xf9, 0x02, 0x83, 0xbd, 0x42, 0xba, 0x0e, 0x3e, 0x85, 0x65, 0x17, 0x3e,
  0x6b, 0xb2, 0x32, 0xbf, 0xfc, 0x62, 0x20, 0x3e, 0xfe, 0xeb, 0x18, 0x3e,
  0xf5, 0xdb, 0x97, 0x3c, 0x25, 0xf3, 0xce, 0x3c, 0x29, 0x73, 0x69, 0x3e,
  0xf2, 0x70, 0xd6, 0xbb, 0x2f, 0x0b, 0x13, 0x3e, 0xd4, 0x1c, 0x32, 0xbf,
  0x6a, 0x7f, 0xb3, 0xbd, 0x4c, 0x05, 0xb4, 0x3d, 0xe5, 0xdd, 0x08, 0x3e,
  0x7c, 0xdd, 0x73, 0x3e, 0x90, 0x36, 0x64, 0xbc, 0xeb, 0x20, 0x9d, 0xbd,
  0x29, 0x07, 0x4e, 0xbe, 0xdb, 0x59, 0xa0, 0xbe, 0x8a, 0x04, 0xce, 0xbd,
  0xb1, 0x7b, 0x3d, 0xbe, 0x9e, 0x7e, 0x71, 0xbe, 0x78, 0xdd, 0xa4, 0x3d,
  0xf0, 0x42, 0x8f, 0xbe, 0x9d, 0x43, 0xcd, 0xbb, 0x8c, 0x42, 0xcc, 0xbe,
  0xe0, 0xa5, 0x45, 0xbe, 0xf4, 0x8f, 0xd9, 0x3d, 0x96, 0x34, 0x99, 0xbe,
  0xff, 0x7a, 0x17, 0xbe, 0x8e, 0x98, 0x5a, 0x3e, 0x05, 0x09, 0x4e, 0xbe,
  0x2c, 0x6c, 0x85, 0x3e, 0xc9, 0x96, 0x01, 0xbe, 0xc0, 0x6d, 0x63, 0xbd,
  0x2d, 0xcd, 0xc8, 0xbd, 0xcd, 0x40, 0x5d, 0xbd, 0xe5, 0x24, 0x0b, 0x3e,
  0xa5, 0x5d, 0xe2, 0x3d, 0xf6, 0x22, 0x39, 0x3d, 0x1b, 0xd2, 0x9a, 0xbc,
  0x0e, 0xe3, 0xa0, 0x3c, 0xec, 0x66, 0x08, 0x3d, 0x18, 0x18, 0x64, 0xbe,
  0x33, 0x40, 0x36, 0x3e, 0x4f, 0xa7, 0x39, 0xbd, 0xc4, 0x1b, 0x88, 0xbe,
  0xe9, 0x90, 0x39, 0x3e, 0x96, 0x95, 0x0d, 0xbe, 0x4e, 0xd6, 0xbd, 0xbe,
  0xed, 0x10, 0xec, 0xbd, 0xcc, 0xed, 0xb6, 0xbc, 0x08, 0x89, 0x18, 0xbe,
  0xb3, 0x83, 0x48, 0x3d, 0x21, 0xf8, 0x92, 0xbc, 0xe1, 0x4c, 0xbb, 0xbe,
  0x6a, 0xd0, 0xb3, 0xbe, 0xee, 0xe4, 0x61, 0xbf, 0xdf, 0x3b, 0x1d, 0xbe,
  0x8b, 0x11, 0x07, 0x3e, 0x9e, 0x4f, 0x5e, 0xbf, 0xb8, 0xa8, 0xe7, 0x3b,
  0x91, 0xe2, 0xbc, 0x3e, 0xdf, 0xb9, 0x9d, 0xbe, 0x9b, 0xfd, 0x06, 0x3d,
  0x95, 0xd9, 0x9c, 0x3e, 0x64, 0xdb, 0xdd, 0xbe, 0xa4, 0x7a, 0xa3, 0x3d,
  0xf5, 0xc9, 0x8a, 0x3d, 0x6d, 0x3d, 0x8c, 0x3b, 0x2a, 0x4e, 0x8d, 0xbd,
  0x57, 0x90, 0xa9, 0x3e, 0x93, 0x81, 0x00, 0x3e, 0x59, 0x2d, 0x55, 0x3d,
  0x07, 0xae, 0x10, 0xbf, 0x27, 0xd0, 0x29, 0xbe, 0x49, 0xb5, 0x3c, 0x3e,
  0xdc, 0x3b, 0x02, 0xbd, 0x4d, 0x7e, 0x45, 0xbe, 0xb8, 0xea, 0x3d, 0x3d,
  0x2e, 0x69, 0xad, 0x3e, 0x14, 0x6b, 0xa2, 0x3c, 0x86, 0xed, 0xc4, 0x3c,
  0xa8, 0xf3, 0x68, 0xbe, 0x0a, 0x03, 0x17, 0x3d, 0x53, 0xc7, 0x94, 0xbe,
  0xd9, 0xd5, 0x54, 0xbd, 0x27, 0x9a, 0xd4, 0xbc, 0x91, 0xae, 0x29, 0x3e,
  0xfd, 0x68, 0xe1, 0xbd, 0x3c, 0x5b, 0x92, 0x3d, 0x00, 0x3b, 0x3a, 0xbe,
  0x1f, 0xd7, 0x6d, 0x3c, 0xe7, 0x81, 0x9f, 0xbe, 0xab, 0x12, 0x41, 0xbd,
  0x4c, 0x08, 0xe8, 0xbd, 0xbd, 0x0a, 0x1c, 0xbe, 0xd0, 0xa1, 0xd0, 0xbe,
  0x71, 0x00, 0x33, 0xbd, 0xaa, 0x18, 0xbb, 0xbe, 0x94, 0xd7, 0x7d, 0x3d,
  0xec, 0xd0, 0xc5, 0xbe, 0xd0, 0xe3, 0x0b, 0x3e, 0x3a, 0x29, 0x78, 0xbd,
  0x98, 0x81, 0x34, 0x3e, 0x84, 0x0a, 0x4d, 0xbe, 0xa7, 0x25, 0x21, 0x3d,
  0x4b, 0xf5, 0xec, 0xbe, 0x64, 0x2d, 0x5d, 0xbe, 0x2c, 0x1a, 0x04, 0xbf,
  0x0a, 0x19, 0x7c, 0x3e, 0x6f, 0xe1, 0x00, 0xbe, 0xfe, 0xa7, 0xe4, 0xbc,
  0xc7, 0xb6, 0xbf, 0x3e, 0xe6, 0xcc, 0x77, 0x3e, 0xc9, 0x71, 0x92, 0xbd,
  0xde, 0xeb, 0x3d, 0x3e, 0xba, 0xc9, 0x5c, 0x3d, 0x13, 0x1a, 0xb1, 0x3e,
  0xe5, 0x17, 0x1b, 0x3e, 0xd9, 0x4a, 0xb8, 0xbd, 0x63, 0x15, 0x10, 0xbe,
  0x4f, 0x8c, 0x2a, 0xbe, 0x60, 0x3c, 0x89, 0xbe, 0x67, 0x5b, 0x2d, 0xbd,
  0x50, 0x45, 0x6a, 0xbe, 0x22, 0xa4, 0x0f, 0xbe, 0xb5, 0xbd, 0x9b, 0xbe,
  0x23, 0x00, 0x05, 0xbe, 0xe0, 0x2d, 0x16, 0xbe, 0x9b, 0x25, 0x86, 0xbe,
  0x2b, 0x4b, 0x99, 0xbd, 0x89, 0x28, 0xaa, 0xbd, 0x7a, 0x3e, 0x51, 0xbe,
  0xfc, 0x32, 0x90, 0x3e, 0x55, 0x1c, 0x89, 0xbe, 0xa6, 0x62, 0x30, 0x3d,
  0x1e, 0xa7, 0x43, 0xbe, 0x21, 0x87, 0x35, 0xbe, 0x30, 0x79, 0x02, 0x3e,
  0x3e, 0x66, 0x23, 0xbe, 0x09, 0xc2, 0xc9, 0xbd, 0xfe, 0xd8, 0x1d, 0x3e,
  0xb9, 0xa3, 0x62, 0xbe, 0xcd, 0x90, 0x75, 0xbd, 0xff, 0xee, 0x7e, 0xbd,
  0x9a, 0xf4, 0x59, 0xbc, 0x07, 0x9c, 0xbe, 0xbc, 0xb0, 0x06, 0x98, 0xbd,
  0x34, 0x72, 0x81, 0xbc, 0x7b, 0x05, 0x64, 0xbb, 0x92, 0xdb, 0xcf, 0x3b,
  0x8c, 0x11, 0x62, 0xbd, 0x72, 0xef, 0x3c, 0xbd, 0x34, 0xa6, 0x98, 0x3d,
  0x6a, 0xa8, 0xe5, 0x3d, 0xae, 0x61, 0x06, 0xbc, 0x72, 0x77, 0xb1, 0xba,
  0x29, 0x91, 0x0f, 0xbd, 0x7f, 0x14, 0x55, 0xbd, 0x48, 0xe8, 0xcc, 0xbc,
  0x96, 0x4d, 0x86, 0xbd, 0x15, 0x08, 0x1b, 0x3c, 0x7a, 0x13, 0x4a, 0xbe,
  0xd8, 0x75, 0x19, 0x3c, 0x07, 0x32, 0x49, 0xbd, 0x8e, 0x2d, 0x33, 0x3f,
  0x83, 0x36, 0x9e, 0x3e, 0x50, 0xdb, 0x3f, 0xbd, 0xf6, 0x25, 0x69, 0x3d,
  0x0c, 0xa3, 0x7f, 0x3a, 0xa1, 0x57, 0x77, 0x3e, 0x01, 0x66, 0x80, 0x3d,
  0xf2, 0x0d, 0x20, 0xbd, 0x43, 0xd6, 0x34, 0xbe, 0x67, 0x00, 0x4f, 0x3c,
  0xf5, 0x4f, 0x0f, 0x3e, 0x85, 0x9f, 0xa1, 0xbe, 0x3f, 0xe2, 0x7d, 0xbe,
  0x47, 0x2d, 0x01, 0xbd, 0x38, 0x4c, 0x52, 0xbe, 0x11, 0xa4, 0x03, 0xbe,
  0x3b, 0xb7, 0x22, 0xbd, 0x47, 0x9c, 0xca, 0xbd, 0x0d, 0xa3, 0xf8, 0xbd,
  0x03, 0xa8, 0xae, 0xbe, 0xa5, 0x54, 0x35, 0xbe, 0x81, 0xf9, 0x0e, 0x3e,
  0x68, 0x81, 0x86, 0xbe, 0x13, 0xe1, 0xba, 0x3e, 0xc1, 0x43, 0x91, 0x3e,
  0x15, 0xd9, 0x21, 0xbe, 0x17, 0x1c, 0x93, 0xbd, 0xf5, 0xf3, 0x84, 0xbe,
  0xa3, 0xdc, 0x4e, 0xbe, 0x5b, 0x6e, 0xa0, 0x3d, 0x90, 0xbf, 0x92, 0xbe,
  0x34, 0x7a, 0xe0, 0xbb, 0x99, 0x90, 0x25, 0xbe, 0x90, 0x97, 0x32, 0x3d,
  0x5f, 0x36, 0xa0, 0x3e, 0x63, 0x3c, 0x3c, 0x3c, 0x26, 0x0a, 0x97, 0xbe,
  0x00, 0x97, 0xb2, 0x3e, 0x81, 0x3c, 0x1c, 0x3e, 0xa3, 0xf9, 0xce, 0x3d,
  0xce, 0x24, 0x58, 0x3e, 0x3b, 0xe0, 0x94, 0x3d, 0x67, 0xe1, 0xa9, 0xbd,
  0x61, 0x43, 0x8b, 0xbd, 0x1a, 0x71, 0x41, 0xbe, 0xae, 0x1d, 0x3b, 0xbd,
  0xf5, 0x41, 0x94, 0x3d, 0x78, 0x17, 0x59, 0xbe, 0x4b, 0xa8, 0x0a, 0xbd,
  0xc9, 0x3f, 0x21, 0x3e, 0xcd, 0xe0, 0xd9, 0xbb, 0xe9, 0x1f, 0xc3, 0xbd,
  0xef, 0x28, 0x5f, 0x3e, 0x4a, 0x78, 0x2d, 0xbe, 0xc2, 0xfb, 0x77, 0xbc,
  0x0d, 0x2a, 0xb4, 0xbe, 0xbc, 0x1f, 0x24, 0x3d, 0x3b, 0x73, 0x84, 0xbe,
  0x4a, 0x57, 0xea, 0xbb, 0x75, 0x46, 0x4f, 0x3d, 0xa3, 0x41, 0x73, 0xbe,
  0x6c, 0xc3, 0x47, 0xbe, 0x1d, 0x2e, 0x5b, 0xbd, 0x2a, 0x2d, 0xb6, 0xbc,
  0x15, 0x80, 0x39, 0x3d, 0x55, 0x2d, 0x4f, 0x3c, 0x5c, 0x29, 0x94, 0x3d,
  0x55, 0x1f, 0x86, 0xbb, 0x76, 0xeb, 0x83, 0xbe, 0x04, 0x02, 0x2c, 0xbe,
  0x7c, 0x0c, 0xe3, 0x3c, 0x25, 0x11, 0x5e, 0xbd, 0x4b, 0x7c, 0xbb, 0x3c,
  0x0a, 0x23, 0xf7, 0xbd, 0x49, 0x25, 0x5b, 0xbd, 0xda, 0x37, 0x93, 0x3e,
  0x5a, 0xda, 0xeb, 0xbc, 0x57, 0xae, 0x91, 0xbe, 0x9c, 0xbd, 0xfa, 0x3a,
  0xd8, 0xd7, 0x72, 0xbd, 0x21, 0x67, 0x88, 0xbe, 0x60, 0x2b, 0xc7, 0xbd,
  0x73, 0x3a, 0xad, 0x3d, 0xd3, 0x4a, 0x94, 0xbd, 0xee, 0x7d, 0xdf, 0x3c,
  0x9d, 0xc4, 0x40, 0xbe, 0x86, 0x44, 0x5b, 0x3d, 0x76, 0x65, 0xa0, 0x3e,
  0x47, 0xe6, 0x0f, 0xbe, 0x8c, 0xde, 0xc0, 0xbc, 0xf1, 0x7c, 0x04, 0xbd,
  0x06, 0x05, 0x24, 0xbd, 0x1f, 0x5a, 0x43, 0x3e, 0xd5, 0xcf, 0x00, 0xbe,
  0x0d, 0x59, 0x8c, 0x3c, 0x4e, 0xaa, 0xce, 0xbd, 0x44, 0xec, 0x4d, 0xbe,
  0x23, 0x11, 0x54, 0xbe, 0x6e, 0x8d, 0x07, 0xbe, 0x01, 0xc9, 0x02, 0xbd,
  0xf2, 0xb0, 0x85, 0xbd, 0xfa, 0x98, 0x32, 0xbe, 0x68, 0xe5, 0x22, 0xbe,
  0x23, 0xc4, 0x35, 0xbd, 0x14, 0x09, 0x1e, 0xbd, 0x94, 0xa3, 0xea, 0xbd,
  0xba, 0xdf, 0xdc, 0xbb, 0xec, 0xd3, 0xe7, 0xbd, 0xda, 0x25, 0xef, 0xbb,
  0x7b, 0x5a, 0xbb, 0xbc, 0xb0, 0x66, 0x34, 0xbd, 0x59, 0xdb, 0x77, 0xbc,
  0x1e, 0x7b, 0x38, 0x3b, 0x13, 0xdc, 0x4a, 0xbe, 0x42, 0x9b, 0x1b, 0xbd,
  0x84, 0x7e, 0xd9, 0xbd, 0x26, 0x10, 0x83, 0xbd, 0x3f, 0x24, 0xa1, 0xbd,
  0x8b, 0xe1, 0x93, 0xbd, 0x7d, 0x0a, 0x77, 0xbd, 0x3e, 0x78, 0x44, 0xbe,
  0x0c, 0x7f, 0x6b, 0xbe, 0x94, 0x43, 0x51, 0x3c, 0xe5, 0x20, 0xb3, 0xbd,
  0xc1, 0xa6, 0x97, 0xbc, 0x0c, 0x9c, 0x7b, 0xbe, 0x36, 0x77, 0x40, 0xbd,
  0x9f, 0x94, 0x3e, 0xbc, 0xeb, 0x8d, 0x49, 0xbe, 0x2a, 0xce, 0x39, 0xbe,
  0x77, 0x33, 0x98, 0xb9, 0xfb, 0x58, 0x53, 0x3d, 0x1b, 0xc6, 0x4f, 0x3c,
  0xe3, 0xa0, 0x33, 0xbe, 0x19, 0x8e, 0x2b, 0x3e, 0x0a, 0xdd, 0x0c, 0x3d,
  0x35, 0xd4, 0x42, 0x3c, 0x63, 0x88, 0x43, 0x3f, 0x7b, 0x97, 0x03, 0x3d,
  0x35, 0xba, 0xae, 0xbb, 0x84, 0xe7, 0x5c, 0x3c, 0x37, 0x14, 0xba, 0xbe,
  0xdb, 0x77, 0x9f, 0x3c, 0x85, 0x1f, 0xeb, 0xbd, 0xa8, 0xe3, 0x4d, 0xbf,
  0x7f, 0xc6, 0x88, 0xbe, 0x4b, 0x4a, 0x12, 0xbe, 0x4c, 0x3f, 0x46, 0x3d,
  0x44, 0xc0, 0x97, 0x3b, 0x34, 0xa5, 0x13, 0xbe, 0xe9, 0x49, 0x96, 0xbd,
  0x32, 0x51, 0xea, 0xbd, 0x20, 0x21, 0xb6, 0xbe, 0x57, 0x6f, 0x11, 0xbd,
  0xbb, 0x66, 0x8e, 0xbd, 0x54, 0x65, 0x91, 0x3d, 0x1a, 0xd3, 0x99, 0xbc,
  0x1b, 0xc8, 0x37, 0x3e, 0x58, 0x42, 0x8f, 0xbd, 0x9d, 0xfb, 0x1b, 0xbe,
  0xaa, 0xcc, 0x51, 0x3d, 0x89, 0x12, 0xd2, 0xbd, 0xdd, 0x4a, 0x6b, 0xbe,
  0x04, 0x6b, 0xf8, 0xbc, 0x66, 0x54, 0xee, 0x3c, 0x61, 0x61, 0x90, 0x3e,
  0x83, 0xc6, 0x7a, 0xbe, 0x04, 0xff, 0x0e, 0x3e, 0xee, 0x30, 0x18, 0x3f,
  0x63, 0x2c, 0x0e, 0xbe, 0x7c, 0xbf, 0x92, 0xbd, 0xd4, 0xfb, 0x34, 0xbe,
  0x41, 0x84, 0x04, 0xba, 0xe3, 0x95, 0x26, 0x3f, 0x7c, 0xb4, 0x7d, 0xbe,
  0xb9, 0xfd, 0x4c, 0xbc, 0xa4, 0x46, 0x74, 0x3d, 0x0c, 0x18, 0x02, 0xbe,
  0x25, 0xc3, 0x47, 0xbe, 0x12, 0x99, 0x0a, 0xbf, 0xe1, 0xea, 0x99, 0xbc,
  0xa5, 0xa9, 0x3c, 0xbe, 0xf4, 0xa1, 0x13, 0xbf, 0x70, 0xea, 0x43, 0x3c,
  0x38, 0x5b, 0xb4, 0x3b, 0x0e, 0xcb, 0x6a, 0xbe, 0x59, 0xf0, 0xf8, 0x3d,
  0xb8, 0xf0, 0x8d, 0x3d, 0x8b, 0x68, 0x2e, 0xbd, 0x3b, 0xad, 0x3c, 0xbd,
  0xec, 0x95, 0x06, 0x3e, 0xbb, 0xfd, 0x85, 0xbc, 0x07, 0xf0, 0x8a, 0xbe,
  0xa3, 0xf4, 0xd2, 0x3c, 0x33, 0xe2, 0x9b, 0x3c, 0xdd, 0x5a, 0xb7, 0x3d,
  0x94, 0xf3, 0x40, 0xbd, 0xb0, 0xfe, 0xe7, 0xbc, 0xc6, 0x75, 0xee, 0x3d,
  0xd1, 0xf2, 0xff, 0x3c, 0x3b, 0x4d, 0x2c, 0x3e, 0x96, 0x6d, 0x84, 0x3c,
  0xc6, 0xde, 0xff, 0xff, 0x10, 0x00, 0x00, 0x00, 0x08, 0x00, 0x00, 0x00,
  0x1c, 0x00, 0x00, 0x00, 0x38, 0x00, 0x00, 0x00, 0x04, 0x00, 0x00, 0x00,
  0x10, 0x00, 0x00, 0x00, 0x04, 0x00, 0x00, 0x00, 0x01, 0x00, 0x00, 0x00,
  0x08, 0x00, 0x00, 0x00, 0x1a, 0x00, 0x00, 0x00, 0x73, 0x65, 0x71, 0x75,
  0x65, 0x6e, 0x74, 0x69, 0x61, 0x6c, 0x2f, 0x63, 0x6f, 0x6e, 0x76, 0x32,
  0x64, 0x5f, 0x31, 0x2f, 0x43, 0x6f, 0x6e, 0x76, 0x32, 0x44, 0x00, 0x00,
  0xc0, 0xde, 0xff, 0xff, 0xb6, 0xdf, 0xff, 0xff, 0x04, 0x00, 0x00, 0x00,
  0x80, 0x01, 0x00, 0x00, 0x5d, 0x07, 0x21, 0x3e, 0xeb, 0x5f, 0x2b, 0x3c,
  0x4a, 0xc0, 0x1e, 0xbe, 0x22, 0xd9, 0xb9, 0xbe, 0x39, 0x92, 0x50, 0xbd,
  0x27, 0x7a, 0x02, 0x3c, 0xc8, 0x56, 0x00, 0xbe, 0x0e, 0xfc, 0xad, 0x3d,
  0x30, 0x3a, 0x3a, 0xbe, 0x15, 0xd8, 0x28, 0xbe, 0x06, 0x61, 0x72, 0xbd,
  0x32, 0x9b, 0x30, 0xbe, 0xc2, 0xc1, 0xcd, 0xbd, 0xa6, 0x4e, 0xb7, 0xbd,
  0x54, 0x89, 0x1d, 0xbe, 0x66, 0xfc, 0x9d, 0xbd, 0xa4, 0xf8, 0x88, 0xbd,
  0xfb, 0x76, 0xba, 0xbd, 0xd4, 0x48, 0xc0, 0x3d, 0x33, 0xc9, 0x4f, 0xbe,
  0x4f, 0xc1, 0xa6, 0x3d, 0xab, 0x33, 0xec, 0xbd, 0xba, 0xfe, 0xd6, 0x3c,
  0x02, 0x19, 0x59, 0xbb, 0x4a, 0xb4, 0xa5, 0xbd, 0xa8, 0x63, 0x5b, 0x3e,
  0x08, 0xea, 0x3e, 0xbe, 0xc0, 0xa0, 0x05, 0x3c, 0xc0, 0x69, 0xa8, 0xbc,
  0x8d, 0x7c, 0x9d, 0xbc, 0x19, 0x1d, 0xa9, 0x3c, 0x98, 0xb8, 0x95, 0x3d,
  0x9c, 0x2e, 0xc0, 0xbd, 0x4f, 0x7a, 0xdf, 0x3d, 0x35, 0x9b, 0xac, 0xbd,
  0x15, 0xd7, 0xcc, 0x3d, 0x7e, 0xad, 0x04, 0x3e, 0xfd, 0x85, 0x93, 0xbd,
  0xd4, 0x00, 0xe0, 0xbc, 0x99, 0x59, 0x29, 0xbf, 0x69, 0x3b, 0x52, 0x3b,
  0xbd, 0xe2, 0x88, 0x3c, 0xb1, 0x58, 0x55, 0x3e, 0xc6, 0x21, 0x3e, 0xbe,
  0xc5, 0xaa, 0x09, 0xbe, 0xd2, 0xbb, 0xcb, 0x3e, 0xf6, 0x15, 0x29, 0x3e,
  0x09, 0xbd, 0x98, 0x3d, 0x70, 0x8f, 0xa0, 0xbd, 0x95, 0xdc, 0x22, 0xbd,
  0x06, 0x6c, 0x82, 0xbe, 0xa3, 0xd0, 0x5f, 0xbd, 0xed, 0x8f, 0x25, 0xbd,
  0x89, 0xe4, 0x31, 0xbe, 0x5c, 0x86, 0x98, 0x3b, 0x07, 0xd8, 0x79, 0xbd,
  0xbd, 0xa0, 0x3d, 0x3c, 0x00, 0x51, 0x7e, 0xbc, 0x10, 0x4e, 0x35, 0xbe,
  0xc2, 0x11, 0x79, 0x3c, 0x00, 0xdd, 0x06, 0xbe, 0xa5, 0xd4, 0xb4, 0xbd,
  0x0c, 0x03, 0x45, 0xbe, 0x1b, 0xa8, 0xbb, 0x3e, 0x45, 0xee, 0xf9, 0x3d,
  0xe9, 0xac, 0x54, 0xbe, 0x5e, 0x3c, 0x8b, 0x3e, 0x8e, 0x85, 0x36, 0xbd,
  0xf9, 0x5b, 0xfc, 0x3d, 0x52, 0xd5, 0xc2, 0xbd, 0x2b, 0x07, 0x0f, 0xbd,
  0x75, 0xf5, 0x81, 0x3c, 0x24, 0xe0, 0xa3, 0xbe, 0xa6, 0x18, 0xe4, 0x3c,
  0x15, 0xb1, 0x8d, 0x3c, 0xf2, 0x92, 0xcd, 0xbe, 0xbe, 0x6f, 0x5d, 0xbe,
  0xea, 0x81, 0x35, 0xbe, 0xd0, 0x46, 0x06, 0x3f, 0x88, 0x00, 0x9a, 0x3d,
  0x51, 0xd2, 0xd0, 0x3d, 0x51, 0xac, 0x3a, 0x3e, 0x9d, 0x37, 0xbf, 0x3d,
  0xab, 0x83, 0x5c, 0x3d, 0xdc, 0xe4, 0xec, 0x3d, 0x71, 0xf8, 0xf6, 0x3e,
  0xe2, 0xd9, 0x58, 0xbe, 0x90, 0x79, 0x00, 0xbe, 0x8a, 0x22, 0x39, 0xbe,
  0x09, 0xe4, 0x87, 0xbd, 0x82, 0x12, 0x84, 0x3d, 0x90, 0x2c, 0xbb, 0xbe,
  0x24, 0x42, 0xfa, 0x3d, 0x47, 0xc1, 0xd8, 0xbd, 0x30, 0x9a, 0xde, 0xbc,
  0xdd, 0x6c, 0x17, 0x3d, 0x9e, 0xe0, 0xff, 0xff, 0x10, 0x00, 0x00, 0x00,
  0x07, 0x00, 0x00, 0x00, 0x1c, 0x00, 0x00, 0x00, 0x38, 0x00, 0x00, 0x00,
  0x04, 0x00, 0x00, 0x00, 0x08, 0x00, 0x00, 0x00, 0x04, 0x00, 0x00, 0x00,
  0x03, 0x00, 0x00, 0x00, 0x01, 0x00, 0x00, 0x00, 0x18, 0x00, 0x00, 0x00,
  0x73, 0x65, 0x71, 0x75, 0x65, 0x6e, 0x74, 0x69, 0x61, 0x6c, 0x2f, 0x63,
  0x6f, 0x6e, 0x76, 0x32, 0x64, 0x2f, 0x43, 0x6f, 0x6e, 0x76, 0x32, 0x44,
  0x00, 0x00, 0x00, 0x00, 0x98, 0xe0, 0xff, 0xff, 0x8e, 0xe1, 0xff, 0xff,
  0x04, 0x00, 0x00, 0x00, 0x00, 0x01, 0x00, 0x00, 0x4d, 0x53, 0x8b, 0x3e,
  0x2a, 0xf5, 0x4d, 0xbe, 0x49, 0x37, 0x25, 0x3e, 0xe4, 0x19, 0xb3, 0x3e,
  0xab, 0x39, 0xe8, 0xbe, 0xad, 0x1f, 0x46, 0x3e, 0x81, 0xb3, 0xf3, 0x3d,
  0x84, 0xfd, 0x12, 0x3e, 0xc5, 0x58, 0x01, 0xbf, 0xc3, 0xad, 0x66, 0x3e,
  0x5b, 0x16, 0xe4, 0xbd, 0x80, 0x13, 0x0b, 0xbf, 0xc1, 0x83, 0xcb, 0x3e,
  0x8c, 0x76, 0x46, 0xbc, 0x49, 0xba, 0x60, 0x3e, 0xdf, 0x98, 0x8d, 0x3e,
  0x1a, 0xa4, 0x6b, 0x3e, 0x3b, 0x93, 0xbf, 0x3b, 0xcf, 0x22, 0x5a, 0xbd,
  0xf0, 0xa1, 0xcb, 0x3e, 0x0a, 0x2c, 0x90, 0xbe, 0x01, 0x0c, 0xb9, 0xbd,
  0x70, 0x55, 0x14, 0x3e, 0x21, 0x3f, 0xba, 0x3d, 0x4b, 0x07, 0x74, 0xbe,
  0x6d, 0x9d, 0x44, 0x3e, 0xaa, 0xba, 0x6b, 0xbe, 0x2a, 0xb6, 0x46, 0xbe,
  0x02, 0x9e, 0xbb, 0x3e, 0xef, 0x2b, 0x97, 0x3d, 0xcb, 0x22, 0x24, 0x3e,
  0xd4, 0xa6, 0xc9, 0xbe, 0x93, 0xff, 0xb3, 0x3e, 0x64, 0xe1, 0xc4, 0x3e,
  0x31, 0x16, 0xa8, 0x3d, 0xc9, 0xcd, 0x0f, 0x3e, 0x46, 0xff, 0xa6, 0x3e,
  0x85, 0x93, 0x7c, 0xbe, 0x95, 0x3c, 0x05, 0x3e, 0x1a, 0x11, 0x0a, 0x3e,
  0x21, 0xfc, 0x84, 0x3d, 0x83, 0x7f, 0xa2, 0x3e, 0xc3, 0xd7, 0x27, 0xbe,
  0x47, 0xe1, 0x7b, 0xbe, 0x77, 0xdc, 0xe5, 0x3e, 0xc9, 0x09, 0x35, 0x3e,
  0x65, 0xaa, 0x58, 0x3e, 0xfc, 0x2b, 0x42, 0xbd, 0x4b, 0xb6, 0xb0, 0x3e,
  0x3b, 0xa3, 0xdc, 0x3e, 0xb5, 0x7a, 0x14, 0x3e, 0xd4, 0x0e, 0x2d, 0xbf,
  0xe1, 0x81, 0x86, 0x3e, 0x6b, 0x18, 0x94, 0xbe, 0xb4, 0x90, 0x79, 0x3b,
  0xff, 0x3e, 0xbb, 0x3d, 0x0d, 0x01, 0x16, 0x3e, 0xbf, 0xdf, 0x6c, 0x3e,
  0x86, 0x55, 0x38, 0xbe, 0x6f, 0xa1, 0x98, 0x3e, 0xc1, 0xbb, 0xb8, 0x3e,
  0x12, 0xe9, 0xf3, 0xbd, 0xf9, 0x30, 0x99, 0x3e, 0x5d, 0xa7, 0xb5, 0xbd,
  0xf6, 0xe1, 0xff, 0xff, 0x10, 0x00, 0x00, 0x00, 0x06, 0x00, 0x00, 0x00,
  0x14, 0x00, 0x00, 0x00, 0x30, 0x00, 0x00, 0x00, 0x02, 0x00, 0x00, 0x00,
  0x04, 0x00, 0x00, 0x00, 0x10, 0x00, 0x00, 0x00, 0x19, 0x00, 0x00, 0x00,
  0x73, 0x65, 0x71, 0x75, 0x65, 0x6e, 0x74, 0x69, 0x61, 0x6c, 0x2f, 0x64,
  0x65, 0x6e, 0x73, 0x65, 0x5f, 0x31, 0x2f, 0x4d, 0x61, 0x74, 0x4d, 0x75,
  0x6c, 0x00, 0x00, 0x00, 0xe8, 0xe1, 0xff, 0xff, 0xde, 0xe2, 0xff, 0xff,
  0x04, 0x00, 0x00, 0x00, 0x00, 0x1c, 0x00, 0x00, 0xdd, 0x78, 0x81, 0xbd,
  0xda, 0xb7, 0xc4, 0x3c, 0x33, 0xef, 0x39, 0xbe, 0x82, 0x8e, 0xa1, 0x3d,
  0xce, 0x71, 0xb4, 0xbc, 0x81, 0x32, 0xab, 0xbe, 0xea, 0xb3, 0x16, 0xbe,
  0xb1, 0x39, 0x96, 0xbd, 0x7f, 0x78, 0x4f, 0xbd, 0x45, 0x62, 0xb0, 0x3d,
  0x9c, 0x1e, 0xc7, 0xbd, 0x56, 0x21, 0x6e, 0x3d, 0xb8, 0x7d, 0x2e, 0x3c,
  0x7e, 0x24, 0x50, 0x3d, 0x0e, 0x9e, 0x6e, 0x3e, 0x11, 0xf2, 0x96, 0xbd,
  0x2e, 0x64, 0x82, 0x3e, 0x12, 0xc3, 0x66, 0xbe, 0x9a, 0xd1, 0x19, 0xbe,
  0xe6, 0x04, 0x25, 0x3e, 0xd0, 0x35, 0x0b, 0xbe, 0x6f, 0x52, 0x4e, 0xbe,
  0x91, 0x1f, 0xdb, 0xbd, 0x8a, 0xcd, 0x0b, 0x3e, 0x3d, 0x31, 0xb2, 0xbe,
  0x55, 0xcb, 0x56, 0x3e, 0xde, 0x9b, 0x03, 0x3e, 0x22, 0x2a, 0x6d, 0x3c,
  0xa3, 0x40, 0x91, 0x3d, 0xa6, 0x47, 0x11, 0xbe, 0xdf, 0x35, 0xc7, 0x3d,
  0xa3, 0xff, 0x46, 0x3d, 0x5c, 0xbb, 0x78, 0x3d, 0xa5, 0xb0, 0x97, 0xbc,
  0xcf, 0x95, 0xdd, 0xbd, 0xa5, 0x0d, 0x85, 0x3e, 0x3b, 0xdf, 0x32, 0x3e,
  0xe3, 0x2d, 0x34, 0xbe, 0x46, 0x0d, 0x05, 0x3e, 0xc4, 0x34, 0x78, 0x3d,
  0x24, 0x46, 0x80, 0x3d, 0x6a, 0x8a, 0x74, 0x3e, 0x35, 0x7a, 0x5d, 0xbd,
  0x15, 0x08, 0x68, 0xbd, 0x37, 0x39, 0x78, 0x3e, 0xe3, 0x66, 0x23, 0xbe,
  0xa9, 0x38, 0xcf, 0xbd, 0x75, 0x52, 0x82, 0x3c, 0xa2, 0xb5, 0x20, 0x3d,
  0xb0, 0xd2, 0xec, 0xbc, 0xa1, 0xea, 0xb4, 0xbd, 0xf5, 0x14, 0x7c, 0x3e,
  0x5b, 0x23, 0x8c, 0x3e, 0xef, 0xe8, 0x4f, 0xbe, 0xad, 0x3d, 0xee, 0x3d,
  0x19, 0xee, 0x34, 0xbc, 0xfb, 0xfa, 0x23, 0xbc, 0x26, 0x63, 0x3b, 0x3e,
  0x95, 0xd1, 0x9e, 0x3d, 0xe3, 0x06, 0x54, 0x3a, 0x80, 0xc8, 0x23, 0x3e,
  0x46, 0x67, 0x81, 0xbd, 0x0e, 0xb3, 0x79, 0x3d, 0x33, 0x51, 0xc6, 0x3d,
  0x5a, 0x9c, 0x2b, 0x3e, 0x88, 0x03, 0xf7, 0xbc, 0x55, 0x98, 0xa4, 0xbd,
  0x7a, 0x7a, 0x4a, 0x3d, 0x84, 0x97, 0xde, 0x3d, 0xa5, 0xac, 0xa8, 0xbe,
  0xac, 0x23, 0x34, 0xbc, 0x32, 0xcb, 0x50, 0x3e, 0x03, 0x14, 0x87, 0xbd,
  0x4c, 0xbe, 0xae, 0x3d, 0xea, 0xe8, 0x2d, 0xbe, 0x6c, 0xe8, 0xe4, 0x3c,
  0x6b, 0x41, 0x12, 0x3e, 0x78, 0xe7, 0x70, 0xbe, 0x14, 0xca, 0x12, 0x3d,
  0xf9, 0xec, 0x22, 0x3d, 0x88, 0xd9, 0x93, 0x3d, 0xfc, 0x9d, 0x02, 0x3e,
  0x1d, 0x5a, 0x6d, 0xbd, 0x36, 0x5f, 0x9c, 0x3d, 0x23, 0xf6, 0x68, 0xbd,
  0x5c, 0xe8, 0x04, 0xbf, 0x1a, 0x1b, 0x3e, 0xbe, 0xe9, 0x4f, 0xd2, 0x3c,
  0x89, 0xdb, 0xf8, 0xbb, 0x68, 0x97, 0xa6, 0x3d, 0x14, 0xe5, 0x38, 0xbe,
  0x1b, 0x6c, 0x92, 0x3e, 0x4e, 0x83, 0xe5, 0x3c, 0xd2, 0x46, 0x16, 0xbe,
  0x54, 0x44, 0x0f, 0x3c, 0xcc, 0x8d, 0x82, 0x3d, 0x5f, 0x20, 0xc0, 0x3d,
  0xb0, 0x78, 0xcd, 0x3d, 0xda, 0x58, 0xbb, 0xbd, 0xee, 0x25, 0x20, 0x3e,
  0x68, 0x42, 0xce, 0xbc, 0x80, 0x5e, 0x50, 0xbe, 0x31, 0x9d, 0x20, 0xbe,
  0x1b, 0x98, 0x0b, 0xbe, 0x45, 0x9d, 0xa5, 0xbd, 0x6b, 0xb5, 0xc1, 0x3b,
  0x27, 0x45, 0xf8, 0xbc, 0x1f, 0x6d, 0xc1, 0x3d, 0xdb, 0x0b, 0x88, 0x3e,
  0x6f, 0x65, 0x5e, 0xbe, 0x6c, 0xe7, 0x88, 0xbd, 0xaa, 0x47, 0xc9, 0x3c,
  0xed, 0x4a, 0xd9, 0xbe, 0x3c, 0xc1, 0x8d, 0xbe, 0xa7, 0xbd, 0x61, 0xbe,
  0xe5, 0x6d, 0x16, 0xbf, 0xff, 0x43, 0xa1, 0x3e, 0x6a, 0xf4, 0x11, 0xbe,
  0x72, 0xa5, 0xb9, 0x3a, 0xad, 0xb8, 0x31, 0x3e, 0x75, 0x61, 0xae, 0xbd,
  0xc5, 0x05, 0xdb, 0xbd, 0x9d, 0xdc, 0xf4, 0xbe, 0x1c, 0x1c, 0xf7, 0x3e,
  0x84, 0x1d, 0xef, 0xbb, 0x13, 0x02, 0x39, 0xbe, 0xae, 0xf6, 0xb7, 0x3d,
  0x70, 0xfc, 0xa6, 0xbe, 0x59, 0x4b, 0x0a, 0xbe, 0xf3, 0xe1, 0x7e, 0xbe,
  0x6d, 0x44, 0x33, 0xbe, 0x32, 0x66, 0x26, 0x3d, 0x8a, 0x51, 0x0a, 0x3f,
  0x31, 0x58, 0x28, 0x3e, 0x1c, 0xd8, 0xf7, 0x3d, 0x78, 0x5d, 0x51, 0x3e,
  0xa2, 0xb5, 0xa0, 0xbc, 0x22, 0x67, 0x4d, 0x3d, 0x00, 0xf6, 0x96, 0xbe,
  0x1d, 0x01, 0xcd, 0x3e, 0x4d, 0x7d, 0xb7, 0xbc, 0x9b, 0x21, 0x22, 0x3e,
  0xf1, 0xb3, 0x8a, 0x3e, 0xbe, 0x1a, 0x7d, 0xbe, 0xce, 0x02, 0x10, 0xbe,
  0xf6, 0x92, 0x17, 0xbe, 0x02, 0x26, 0xba, 0xbe, 0xaa, 0x5c, 0x95, 0x3d,
  0xb6, 0x6d, 0x66, 0x3e, 0x22, 0x2c, 0x9e, 0xbd, 0xa4, 0x88, 0x8c, 0x3e,
  0xf6, 0xbc, 0x6f, 0x3e, 0x39, 0x49, 0x1f, 0x3e, 0xb8, 0xa8, 0xea, 0x3c,
  0xc7, 0x4f, 0xee, 0xbd, 0x6b, 0x20, 0x6a, 0x3e, 0x17, 0xf1, 0x46, 0x3d,
  0x79, 0xcd, 0x17, 0x3d, 0x1e, 0xbf, 0x0d, 0x3f, 0x1d, 0x08, 0x87, 0xbe,
  0xee, 0x75, 0x2e, 0xbe, 0x83, 0xcd, 0xd3, 0x3c, 0xbd, 0x08, 0xb3, 0xbd,
  0xab, 0x18, 0xaa, 0x3e, 0x09, 0x5c, 0x56, 0x3e, 0x43, 0x82, 0x45, 0xbe,
  0x7f, 0xfc, 0xb8, 0x3d, 0x18, 0x13, 0xed, 0x3d, 0xcd, 0x69, 0x5e, 0x3b,
  0x4a, 0xed, 0xda, 0xba, 0x6d, 0xf0, 0x54, 0xbe, 0xe4, 0xf8, 0xd8, 0x3e,
  0x74, 0xfa, 0x64, 0x3e, 0x55, 0xd4, 0x77, 0x3d, 0x48, 0x45, 0xd6, 0x3d,
  0x3a, 0x8f, 0x26, 0xbe, 0x62, 0xe6, 0xdf, 0xbd, 0x42, 0x2d, 0x48, 0xbd,
  0x91, 0x79, 0x50, 0xbe, 0x21, 0x95, 0x98, 0x3e, 0xc2, 0x26, 0x10, 0x3c,
  0x73, 0x5e, 0x48, 0xbe, 0x04, 0x0a, 0x8d, 0x3d, 0x0b, 0x62, 0xb6, 0x3d,
  0x5e, 0xb0, 0x71, 0x3e, 0x83, 0x91, 0x2e, 0x3d, 0x0e, 0xa0, 0x6a, 0x3d,
  0x7a, 0xbc, 0xae, 0x3e, 0xca, 0x87, 0xa2, 0xbd, 0x7d, 0x4c, 0xae, 0xbc,
  0x7b, 0x29, 0x20, 0x3e, 0xa9, 0x8e, 0x0e, 0xbd, 0x3f, 0xdc, 0x2e, 0xbe,
  0xbc, 0x17, 0x49, 0xbc, 0x01, 0x75, 0x1e, 0xbe, 0xf4, 0x33, 0x46, 0xbd,
  0x84, 0x26, 0x8a, 0xbd, 0x06, 0x75, 0x82, 0xbe, 0x6c, 0xcb, 0x1f, 0x3d,
  0xcc, 0xff, 0xa5, 0x3b, 0x2d, 0x86, 0x1a, 0x3e, 0x85, 0x3c, 0x50, 0xbc,
  0x67, 0x32, 0x82, 0xbe, 0x49, 0xcf, 0x5d, 0x3e, 0xf0, 0x0c, 0x0a, 0x3e,
  0x04, 0xee, 0x38, 0xbe, 0xda, 0xf6, 0x62, 0xbe, 0x3e, 0x08, 0xa7, 0xbe,
  0xb0, 0x33, 0x16, 0xbf, 0x36, 0x5c, 0xb3, 0xbd, 0xcf, 0x54, 0x94, 0xbe,
  0x53, 0x7d, 0xe8, 0x3d, 0x0f, 0xd4, 0x08, 0x3f, 0x26, 0x39, 0xb7, 0xbd,
  0xcd, 0x5c, 0x06, 0xbd, 0xcf, 0x01, 0x93, 0x3e, 0x57, 0x57, 0x0c, 0x3e,
  0xf4, 0x2d, 0x68, 0xbd, 0x57, 0x45, 0x01, 0xbe, 0xa6, 0xd1, 0xe5, 0x3e,
  0x61, 0x6d, 0xa0, 0xbc, 0x43, 0x1e, 0x06, 0xbf, 0x05, 0x79, 0x29, 0xbf,
  0xe4, 0xc0, 0xbc, 0xbe, 0x93, 0xce, 0x8c, 0xbd, 0xd7, 0xbe, 0xc3, 0x3d,
  0xee, 0xe3, 0x2b, 0x3c, 0x46, 0x57, 0xeb, 0xbe, 0x13, 0x5b, 0x20, 0xbe,
  0xea, 0xdc, 0x5c, 0xbd, 0x58, 0xa2, 0xb1, 0xbe, 0x96, 0x35, 0xe7, 0x3b,
  0x82, 0xb5, 0x21, 0x3d, 0x91, 0xba, 0x6c, 0x3c, 0xc3, 0x69, 0x94, 0x3b,
  0xc6, 0x57, 0x8a, 0x3e, 0x4f, 0x76, 0x86, 0x3d, 0x1c, 0x96, 0xa9, 0xbc,
  0xf0, 0x31, 0x2a, 0xbd, 0x13, 0x41, 0x65, 0xbe, 0xd1, 0x22, 0xe4, 0x3c,
  0x27, 0x24, 0x84, 0x3c, 0x90, 0xe7, 0xed, 0xb9, 0xcc, 0xd9, 0x0e, 0xbe,
  0xfd, 0xf3, 0xa1, 0xbe, 0x15, 0x91, 0xb5, 0x3e, 0x2d, 0x55, 0x21, 0xbe,
  0x18, 0x14, 0xdf, 0xbb, 0xc4, 0x34, 0x5d, 0x3e, 0xec, 0xab, 0x11, 0x3d,
  0x7e, 0x5a, 0x06, 0x3d, 0x97, 0xc9, 0x09, 0x3e, 0x4c, 0x95, 0xf5, 0x3b,
  0xa2, 0xdd, 0x40, 0x3d, 0xd5, 0x3a, 0x2f, 0xbe, 0xd1, 0x72, 0xae, 0x3d,
  0x14, 0x3b, 0x11, 0x3d, 0x68, 0x0c, 0x0b, 0x3e, 0x7d, 0x82, 0xd4, 0x3a,
  0xaf, 0xcb, 0x9c, 0xbc, 0xac, 0xf3, 0xc1, 0xbd, 0xbc, 0x83, 0x97, 0x3f,
  0x7f, 0xaf, 0xd9, 0xbd, 0x36, 0x65, 0x11, 0x3d, 0x21, 0x20, 0x48, 0x3c,
  0xa2, 0x1a, 0x93, 0xbb, 0x8f, 0xeb, 0x8f, 0xbb, 0xf1, 0x98, 0x0a, 0xbe,
  0xc3, 0xf1, 0xfb, 0xba, 0xa3, 0x32, 0xeb, 0x3e, 0xc7, 0x6b, 0x1f, 0xbd,
  0xa1, 0x6f, 0xe6, 0x3d, 0x46, 0xb1, 0x8d, 0x3d, 0xe9, 0xed, 0x19, 0x3e,
  0xdf, 0x8a, 0x60, 0x3a, 0x7f, 0x12, 0x38, 0xbe, 0xcf, 0x61, 0x88, 0xbe,
  0x35, 0x9a, 0x77, 0x3f, 0xbc, 0xe7, 0x49, 0xbe, 0x03, 0x70, 0x30, 0xbd,
  0x15, 0xaa, 0xd4, 0x3d, 0x84, 0xa5, 0x8b, 0x3d, 0x0a, 0xd0, 0x8d, 0x3d,
  0xe7, 0x25, 0x43, 0xbd, 0x8d, 0x57, 0x8a, 0xbc, 0x21, 0xe3, 0xfd, 0x3e,
  0xfe, 0x18, 0x24, 0xbe, 0x3f, 0x0d, 0x85, 0x3d, 0x48, 0xbc, 0x4c, 0x3c,
  0x9e, 0x1c, 0xac, 0x3e, 0x19, 0x17, 0x6a, 0x3c, 0x71, 0x65, 0x0d, 0xbf,
  0xa2, 0xa2, 0x6f, 0xbe, 0x55, 0x0f, 0x34, 0x3e, 0x43, 0x1b, 0xd8, 0xbe,
  0xf6, 0x79, 0x8e, 0xbc, 0xfa, 0xe3, 0x00, 0x3f, 0x8e, 0x72, 0x27, 0xbd,
  0x78, 0xe4, 0x48, 0xbc, 0x5b, 0x3d, 0xc6, 0x3e, 0x67, 0xec, 0xbc, 0xba,
  0xda, 0x65, 0x48, 0x3e, 0x81, 0xae, 0x92, 0xbe, 0x5e, 0x84, 0x21, 0x3e,
  0xbd, 0x3c, 0x28, 0x3d, 0xfe, 0xe4, 0x12, 0x3e, 0x7a, 0x95, 0x67, 0x3b,
  0xe6, 0xcc, 0xb5, 0xbe, 0xbd, 0x6c, 0xb8, 0xbe, 0x52, 0x21, 0xd5, 0xbc,
  0x25, 0x62, 0xbf, 0xbe, 0x99, 0x41, 0x07, 0x3e, 0x76, 0x6b, 0x6f, 0x3e,
  0xb6, 0x58, 0x16, 0xbb, 0x64, 0x2d, 0x58, 0x3a, 0xdc, 0x4f, 0x19, 0x3e,
  0x77, 0x45, 0x92, 0x3d, 0x17, 0xc3, 0x7c, 0x3d, 0x34, 0x89, 0x86, 0xbe,
  0x30, 0x81, 0xd1, 0xbd, 0xf3, 0x00, 0xd3, 0xbc, 0x4d, 0x12, 0x79, 0x3d,
  0x76, 0x7e, 0x1b, 0x38, 0x6d, 0x0e, 0x61, 0xbe, 0x77, 0x86, 0xdc, 0xbd,
  0xc4, 0xe7, 0xc6, 0x3d, 0xfc, 0x64, 0x02, 0xbe, 0xec, 0xa8, 0x4f, 0x3d,
  0x4b, 0xbd, 0x14, 0x3e, 0x5c, 0x46, 0x4b, 0xbd, 0x54, 0x2b, 0xd9, 0xbc,
  0xe0, 0x12, 0x12, 0xbd, 0xa7, 0xd0, 0x37, 0x3d, 0xcc, 0x54, 0xb5, 0xbb,
  0xce, 0x67, 0x71, 0xbe, 0x11, 0x2e, 0x80, 0xbd, 0xb1, 0x48, 0xb6, 0xbd,
  0x41, 0x83, 0xcc, 0xbe, 0xbb, 0xbd, 0x9b, 0xbd, 0xa6, 0x40, 0x88, 0xbd,
  0x6f, 0xa2, 0xd4, 0xbe, 0xa3, 0x38, 0x98, 0x3b, 0x22, 0x7f, 0x1d, 0x3e,
  0xe7, 0xc4, 0xd3, 0xbe, 0xfc, 0x9c, 0xc0, 0xbe, 0xe0, 0xa4, 0x35, 0xbf,
  0x05, 0x89, 0x2f, 0x3c, 0x45, 0x7b, 0xa7, 0x3d, 0xee, 0x12, 0xcb, 0xbe,
  0xff, 0x9b, 0xfe, 0xbe, 0xf6, 0x46, 0x39, 0xbe, 0x4f, 0x7e, 0xeb, 0xbd,
  0x5e, 0xbf, 0xaf, 0x3d, 0xc1, 0x6c, 0xb2, 0xbe, 0xad, 0x0c, 0x1a, 0xbe,
  0x27, 0xc8, 0x25, 0xbe, 0x5b, 0xa1, 0xb4, 0xbd, 0xbd, 0x29, 0x13, 0x3e,
  0xb8, 0xd7, 0x99, 0x3d, 0x33, 0xcf, 0xfb, 0xbe, 0xcc, 0x35, 0xc7, 0xbd,
  0x9f, 0x45, 0xca, 0xbe, 0xf1, 0x3d, 0x8b, 0x3d, 0x58, 0x8c, 0x34, 0x3e,
  0x01, 0x7e, 0xb4, 0xbe, 0x4c, 0xb3, 0x07, 0xbe, 0x1e, 0x43, 0xd6, 0x3c,
  0xa9, 0x78, 0x64, 0xbd, 0x28, 0x05, 0xdf, 0xbc, 0xb5, 0x66, 0x3e, 0xbc,
  0x8a, 0x90, 0xd7, 0xbd, 0x17, 0xd3, 0x21, 0x3e, 0xc4, 0x10, 0x83, 0x3a,
  0x7a, 0x0d, 0x13, 0x3e, 0xd5, 0xe8, 0x4e, 0xbe, 0x95, 0xaf, 0x90, 0xbe,
  0xcb, 0x05, 0xd3, 0xbe, 0xb2, 0x58, 0x05, 0xbf, 0x4c, 0x4d, 0xec, 0x3c,
  0x2a, 0x57, 0xcb, 0xbc, 0xd2, 0x69, 0xf3, 0xbe, 0x36, 0xd6, 0x8c, 0xbe,
  0xce, 0x06, 0xa9, 0x3d, 0x5b, 0x8b, 0x1b, 0xbe, 0x57, 0x05, 0xd3, 0xbd,
  0xfb, 0x1f, 0x8d, 0xbe, 0x81, 0x4a, 0x35, 0xbe, 0x7e, 0x56, 0xbb, 0x3d,
  0xbc, 0xc6, 0x3c, 0xbe, 0x1c, 0x39, 0x0d, 0x3e, 0xc2, 0x60, 0x5c, 0xbe,
  0x17, 0xaf, 0x8a, 0xbe, 0x5f, 0x83, 0xbf, 0xbe, 0x69, 0xab, 0xc7, 0xbe,
  0xc7, 0x99, 0xf2, 0xbc, 0x49, 0xaf, 0x7f, 0xbd, 0xee, 0xf2, 0x03, 0xbf,
  0x93, 0x5b, 0x05, 0xbf, 0xef, 0x3e, 0xae, 0xbd, 0xce, 0x30, 0x4d, 0xbe,
  0x86, 0x75, 0x33, 0x3d, 0x7f, 0x81, 0x6e, 0xbe, 0xfb, 0x36, 0x99, 0xbd,
  0x63, 0x3b, 0xf8, 0x3e, 0xce, 0x17, 0x3e, 0x3e, 0xc3, 0x59, 0x93, 0x3e,
  0x71, 0x8a, 0xfa, 0x3e, 0xe6, 0x72, 0x34, 0xbe, 0x33, 0x51, 0xd0, 0xbe,
  0xa7, 0x50, 0x86, 0x3d, 0x18, 0x59, 0xd8, 0xbd, 0x93, 0xb1, 0x66, 0xbd,
  0x59, 0xd6, 0x25, 0xbe, 0x2b, 0x95, 0x9d, 0x3c, 0x06, 0x1e, 0x80, 0x3d,
  0xdf, 0x37, 0xe5, 0x3d, 0xfc, 0x8e, 0x11, 0xbe, 0x2f, 0xc0, 0xdd, 0xbe,
  0x81, 0x16, 0x69, 0xbd, 0x29, 0x4c, 0x71, 0x3e, 0xab, 0xcc, 0xad, 0x3d,
  0xa8, 0x11, 0x84, 0x3e, 0x75, 0x95, 0x1e, 0x3e, 0x8d, 0xb2, 0x9b, 0xbe,
  0x35, 0x6c, 0xa0, 0xbe, 0x36, 0x94, 0x72, 0xbc, 0xe4, 0xc9, 0xd9, 0x3d,
  0xa4, 0x7e, 0x99, 0xbc, 0xe5, 0xf0, 0x72, 0xbd, 0x17, 0x55, 0xf6, 0x3d,
  0x4c, 0x4d, 0xc7, 0xbc, 0x54, 0x6a, 0x1d, 0x3d, 0x64, 0x27, 0xf0, 0xbd,
  0x14, 0x7a, 0x9c, 0xbc, 0xa2, 0x11, 0x21, 0xbd, 0x8a, 0xd0, 0x58, 0xbd,
  0x6a, 0x67, 0x93, 0x3e, 0x05, 0x80, 0xcf, 0x3e, 0x75, 0x75, 0x92, 0x3d,
  0xba, 0xf8, 0xb1, 0x3d, 0x94, 0x2e, 0xfa, 0xba, 0x16, 0x1d, 0xf8, 0xbc,
  0xb9, 0xbe, 0x88, 0x3d, 0x1c, 0x2c, 0x9a, 0x3d, 0x90, 0xa9, 0xb1, 0xbd,
  0x0e, 0x28, 0xfe, 0x3d, 0x7e, 0x8d, 0x24, 0xbe, 0x59, 0x75, 0x66, 0xbb,
  0x65, 0xdb, 0xea, 0xbc, 0x9d, 0x9d, 0x83, 0xbe, 0x25, 0xbe, 0xc7, 0xbd,
  0xe0, 0xf3, 0x90, 0x3c, 0x88, 0x81, 0xc9, 0xbd, 0xe0, 0x71, 0x8c, 0xbe,
  0x26, 0xac, 0x99, 0x3d, 0x14, 0xa3, 0x7f, 0x3d, 0x41, 0x43, 0x30, 0xbe,
  0xd7, 0x8b, 0xb0, 0xbe, 0x94, 0x60, 0x9a, 0xbc, 0xc0, 0x9e, 0x00, 0x3e,
  0x70, 0x77, 0x71, 0xbe, 0xaa, 0xc8, 0x3d, 0xbd, 0x9d, 0x9b, 0xb9, 0x3d,
  0xf3, 0xd3, 0x17, 0xbe, 0x7b, 0x53, 0x06, 0x3e, 0xc4, 0x3c, 0xd7, 0xbd,
  0x47, 0x29, 0x86, 0xbe, 0x31, 0x3f, 0x47, 0xbe, 0x90, 0xd6, 0x2e, 0x3e,
  0x97, 0x22, 0xc2, 0xbd, 0x99, 0xdc, 0x8e, 0x3d, 0xfe, 0x9a, 0xbf, 0x3d,
  0x3c, 0x0a, 0xb8, 0x3d, 0xa3, 0xd3, 0x81, 0xbc, 0x5e, 0xc8, 0x2b, 0x3d,
  0xb9, 0x95, 0xd3, 0x3d, 0x45, 0x2d, 0x5b, 0xbe, 0xed, 0x51, 0x1f, 0x3d,
  0x86, 0xc1, 0x2e, 0x3e, 0x03, 0xca, 0xda, 0x3d, 0xbd, 0x14, 0x1b, 0xbe,
  0xa6, 0x18, 0x58, 0xbe, 0x53, 0xb3, 0xd4, 0x3c, 0x33, 0xbe, 0x02, 0xbe,
  0x9e, 0x3d, 0x79, 0x3c, 0x36, 0xda, 0x6f, 0xbe, 0x6f, 0x28, 0xba, 0x3d,
  0x76, 0xa2, 0x15, 0xbe, 0x99, 0x86, 0xa5, 0x3d, 0x7e, 0xef, 0x5a, 0xbe,
  0x08, 0x85, 0xb0, 0xbd, 0x89, 0x84, 0xcd, 0x3c, 0xa2, 0xd5, 0xa3, 0xbd,
  0x97, 0xf5, 0x93, 0x3d, 0x7c, 0xdd, 0x03, 0x3e, 0xf0, 0x7a, 0x19, 0xbe,
  0x00, 0x48, 0x10, 0xbe, 0x68, 0x04, 0x1e, 0x3e, 0x66, 0x29, 0x23, 0xbe,
  0x2d, 0xae, 0xe8, 0xbd, 0xb0, 0x5b, 0x28, 0x3e, 0x95, 0xf8, 0x4f, 0xbd,
  0x06, 0x62, 0xbd, 0x3c, 0x57, 0xf5, 0x33, 0xbe, 0xb3, 0xb5, 0x2e, 0x3d,
  0x00, 0xa3, 0x2b, 0xbe, 0x8b, 0x1a, 0x57, 0xbd, 0x47, 0x16, 0x6e, 0xbd,
  0xba, 0xa5, 0x00, 0xbd, 0x77, 0x00, 0x93, 0x3d, 0x94, 0x52, 0x7e, 0x3d,
  0x97, 0x76, 0xe1, 0xbd, 0xb6, 0x6f, 0x6b, 0xbd, 0x34, 0x12, 0xcf, 0xbd,
  0xf0, 0xe6, 0x01, 0xbe, 0xb8, 0xec, 0x25, 0xbe, 0x2e, 0x46, 0x0a, 0x3e,
  0x86, 0xba, 0x46, 0x3d, 0xdf, 0x85, 0x0d, 0x3d, 0x8f, 0xb5, 0x34, 0x3e,
  0x3e, 0x12, 0x05, 0xbe, 0xfd, 0xb8, 0x57, 0xbe, 0xa7, 0x7b, 0xc0, 0xbd,
  0x69, 0xf3, 0x4a, 0xbe, 0x3e, 0xf0, 0x57, 0xbd, 0xa8, 0x0d, 0x86, 0xbc,
  0xa7, 0xd9, 0x2d, 0x3e, 0x4f, 0xac, 0xc7, 0x3d, 0x94, 0xd0, 0xd7, 0x3d,
  0x4e, 0x59, 0x64, 0xbe, 0x71, 0xd7, 0x26, 0xbe, 0x30, 0xfd, 0x86, 0x3d,
  0xbe, 0x81, 0xb8, 0xbc, 0x58, 0xb4, 0x8a, 0xbd, 0x2a, 0xee, 0x4d, 0xbe,
  0x29, 0x3c, 0xb8, 0xbd, 0x3d, 0x1e, 0x64, 0xbe, 0x71, 0xa8, 0x7b, 0xbe,
  0x29, 0x24, 0xc6, 0xbd, 0x3d, 0x4e, 0x09, 0xbd, 0x04, 0x28, 0x05, 0xbd,
  0x8f, 0x08, 0x3a, 0xbe, 0x03, 0xa3, 0x4d, 0xbe, 0xac, 0x39, 0x49, 0xbe,
  0x20, 0x9a, 0x75, 0xbd, 0x0f, 0xd0, 0xb7, 0xbd, 0x58, 0x4d, 0x9f, 0xbe,
  0x62, 0xbc, 0xf5, 0x3c, 0x0b, 0xc5, 0x02, 0x3e, 0xca, 0xe5, 0xf4, 0xbd,
  0xc0, 0x1e, 0x61, 0x3d, 0x15, 0x02, 0x4c, 0xbe, 0x1b, 0xe9, 0xa3, 0xbc,
  0x2b, 0x15, 0x43, 0xbe, 0x2f, 0x62, 0xa5, 0xbc, 0x7f, 0xe5, 0xf4, 0x3d,
  0xfb, 0x4b, 0x81, 0xbe, 0x80, 0x77, 0xc8, 0xbd, 0xcc, 0x3c, 0x2f, 0xbe,
  0x8d, 0x2c, 0x8e, 0xbc, 0xa3, 0xae, 0x7a, 0xbd, 0x86, 0xf5, 0x3a, 0xbe,
  0xe5, 0xf7, 0x41, 0xbe, 0xfa, 0x68, 0x7f, 0xbe, 0xa5, 0x49, 0x4c, 0xbe,
  0x3e, 0xb6, 0xa8, 0xbe, 0x93, 0x9f, 0x48, 0x3d, 0x4b, 0xde, 0xd8, 0x3d,
  0x34, 0xa1, 0x56, 0xbe, 0x10, 0x77, 0x15, 0xbe, 0xa0, 0x9d, 0xc2, 0xbd,
  0xfc, 0xcc, 0xea, 0x3d, 0x92, 0x8d, 0x3b, 0xbd, 0x7b, 0xf6, 0xe4, 0x3d,
  0xe5, 0xef, 0xa5, 0x3d, 0x60, 0xca, 0xb8, 0xbd, 0xc2, 0x69, 0xbf, 0xbc,
  0x43, 0xe1, 0xa5, 0x3c, 0x8f, 0xa0, 0x9c, 0xbe, 0x5f, 0x5c, 0x07, 0xbd,
  0xd7, 0xff, 0xc2, 0xbd, 0x00, 0xd4, 0x0b, 0xbe, 0x22, 0x6f, 0xd1, 0xbd,
  0xd8, 0x6d, 0x03, 0xbe, 0xe5, 0x3d, 0x3c, 0xbe, 0xe8, 0xc9, 0xd7, 0xbd,
  0x1c, 0x5f, 0xea, 0x3c, 0x14, 0x03, 0x80, 0x3d, 0x89, 0x22, 0x32, 0xbd,
  0xd6, 0xc9, 0x3c, 0x3d, 0x8c, 0x43, 0x82, 0x3c, 0x71, 0x91, 0x0f, 0xbe,
  0xe9, 0x0d, 0x02, 0x3d, 0x05, 0x0d, 0x84, 0xbd, 0x3b, 0xa1, 0x52, 0xbe,
  0x72, 0x59, 0x5c, 0x3d, 0x61, 0xa1, 0x9d, 0x3d, 0xa3, 0xb2, 0xbe, 0xbe,
  0xf3, 0x95, 0x13, 0x3d, 0x7e, 0xeb, 0x1b, 0x3d, 0x57, 0x4f, 0x31, 0xbe,
  0x2f, 0xc5, 0x9f, 0xbe, 0x95, 0x49, 0x92, 0x3d, 0xe5, 0x9b, 0x38, 0xbe,
  0x50, 0xbe, 0x6a, 0xbd, 0x12, 0x6e, 0x1b, 0x3e, 0x45, 0x38, 0x8d, 0xbd,
  0xab, 0x7b, 0xfc, 0xbd, 0xca, 0xdf, 0x51, 0xbd, 0xc8, 0xf1, 0x0a, 0xbd,
  0xb6, 0xac, 0x9a, 0xbe, 0x18, 0x98, 0xf3, 0xbc, 0x5b, 0x88, 0xd5, 0xbd,
  0x23, 0x82, 0xaf, 0xbd, 0x58, 0xc4, 0x71, 0x3c, 0xd4, 0xe5, 0x2c, 0xbe,
  0xa2, 0x21, 0x61, 0xbe, 0x35, 0x43, 0x0f, 0xbc, 0x63, 0xd2, 0x0e, 0x3e,
  0x8f, 0x97, 0xeb, 0xbd, 0xaa, 0xf3, 0xe0, 0x3a, 0x1c, 0x74, 0xd1, 0x3d,
  0x40, 0x76, 0x8d, 0x3d, 0xcf, 0x6b, 0xca, 0xbd, 0x7d, 0xfa, 0x92, 0xbe,
  0x3d, 0x7a, 0x18, 0xbe, 0x9f, 0x93, 0x2c, 0xbd, 0x29, 0x35, 0x35, 0xbe,
  0xd4, 0x49, 0x7a, 0x3d, 0x54, 0xb9, 0xba, 0xbd, 0x6e, 0xac, 0x0c, 0x3e,
  0x2c, 0xc7, 0xab, 0x3c, 0xa5, 0x2b, 0x23, 0xbe, 0x98, 0xe3, 0x84, 0xbe,
  0x38, 0x06, 0xe2, 0xbd, 0x76, 0x5b, 0x22, 0xbe, 0xec, 0x51, 0x65, 0xbe,
  0x3a, 0xec, 0xdc, 0x3d, 0xdb, 0xb2, 0xc2, 0xbc, 0x4f, 0xb8, 0x41, 0x3d,
  0xbf, 0xa2, 0x90, 0xbd, 0x30, 0xe2, 0xa1, 0xbd, 0x5c, 0xfc, 0xa7, 0xbe,
  0xea, 0xe4, 0x5c, 0xbc, 0xd1, 0x48, 0x02, 0xbe, 0xce, 0xae, 0x5d, 0xbd,
  0x88, 0x4a, 0x2f, 0x3d, 0x9a, 0x2a, 0x93, 0xbd, 0x71, 0xd3, 0x18, 0xbe,
  0x00, 0xd3, 0xf4, 0xbd, 0x00, 0xcf, 0x21, 0x3d, 0x68, 0x1c, 0x86, 0xbd,
  0xe1, 0x9b, 0x84, 0x3d, 0x90, 0x9d, 0x22, 0xbe, 0x8a, 0xc8, 0xe5, 0x3d,
  0xde, 0x88, 0x59, 0x3b, 0xac, 0x2d, 0xbd, 0xbd, 0x22, 0x4b, 0x23, 0xbd,
  0x91, 0x74, 0x95, 0xbe, 0x9b, 0xf3, 0xf7, 0xbd, 0x28, 0x0e, 0xf1, 0xbd,
  0x67, 0xcc, 0x0d, 0xbe, 0xb9, 0xfd, 0x21, 0xbe, 0xcf, 0xad, 0x70, 0xbe,
  0x2e, 0xd8, 0x9a, 0xbd, 0xcb, 0x62, 0x27, 0xbe, 0xfa, 0x00, 0x5a, 0xbe,
  0x9b, 0xb1, 0x5e, 0xbe, 0x19, 0x47, 0x64, 0xbd, 0x04, 0x90, 0xbd, 0xbd,
  0x1a, 0x55, 0x6c, 0x3c, 0x81, 0xa1, 0x0f, 0xbe, 0xd5, 0xff, 0xf5, 0x3d,
  0x26, 0x57, 0xfa, 0x3d, 0x85, 0xcd, 0x0c, 0xbd, 0x60, 0x76, 0xf9, 0x3d,
  0x94, 0x64, 0x3a, 0x3d, 0x8d, 0xc3, 0x6b, 0x3d, 0x6a, 0x91, 0x62, 0x3d,
  0x03, 0x65, 0x19, 0xbc, 0xbe, 0x0c, 0xaa, 0x3d, 0x7b, 0x79, 0xa1, 0x3d,
  0x8b, 0x11, 0x2a, 0x3d, 0x23, 0xc2, 0x14, 0xbb, 0xd3, 0xcb, 0xd3, 0xbd,
  0x68, 0xb3, 0xe9, 0x3d, 0x39, 0xb8, 0x58, 0x3d, 0x50, 0x9a, 0x02, 0x3e,
  0xce, 0xb3, 0x0f, 0x3c, 0x97, 0x77, 0x3e, 0x3e, 0xed, 0xc2, 0x3f, 0xbc,
  0xef, 0x17, 0x3f, 0x3e, 0x86, 0xfb, 0x96, 0x3d, 0x26, 0x09, 0x4b, 0x3c,
  0x6e, 0x76, 0xaf, 0x3e, 0x27, 0xcb, 0xa1, 0xbd, 0x9f, 0xd4, 0xa9, 0x3d,
  0x85, 0x72, 0xf7, 0x3c, 0x56, 0xd1, 0x38, 0xbd, 0xae, 0x5a, 0x39, 0xbc,
  0xe9, 0x0d, 0x32, 0x3d, 0x5d, 0xdc, 0xe9, 0x3d, 0xdc, 0xb7, 0x0c, 0x3e,
  0xf6, 0xb0, 0xcd, 0x3d, 0x91, 0x60, 0x40, 0xbe, 0x65, 0xad, 0x4e, 0x3d,
  0x5e, 0x84, 0x0f, 0xbc, 0xf7, 0x4d, 0x60, 0x3e, 0xc5, 0x4c, 0x24, 0xbe,
  0xe0, 0x19, 0x00, 0xbe, 0x93, 0x25, 0x3e, 0xbd, 0x32, 0xd7, 0x8b, 0xbd,
  0x8e, 0x4d, 0x2c, 0x3e, 0x30, 0x1d, 0x99, 0xbe, 0x58, 0x73, 0x41, 0xbe,
  0x60, 0x57, 0x1f, 0xbe, 0xf5, 0xc0, 0x4f, 0x3c, 0xee, 0x12, 0xed, 0xbd,
  0x6c, 0x9d, 0xf1, 0x3d, 0x2a, 0xe5, 0xc5, 0xbd, 0x46, 0x46, 0xa4, 0xbe,
  0x1c, 0x24, 0x53, 0xbe, 0x91, 0x61, 0xcb, 0xbc, 0x0d, 0x49, 0x9a, 0xbe,
  0xf7, 0xa0, 0xb7, 0xbc, 0xf5, 0x2b, 0x38, 0xbe, 0x91, 0xe5, 0x23, 0x3d,
  0x38, 0x20, 0x59, 0xbd, 0x23, 0x9f, 0xd2, 0xbe, 0xe9, 0xbd, 0xd7, 0xbe,
  0x19, 0x31, 0xe6, 0xbd, 0x09, 0x42, 0x20, 0xbd, 0x98, 0x9c, 0x27, 0xbd,
  0xb8, 0x66, 0xd2, 0xbe, 0x96, 0x31, 0xf7, 0xbd, 0xd3, 0x8b, 0x6b, 0xbe,
  0x39, 0x0b, 0x11, 0xbe, 0x38, 0x0c, 0xd3, 0xbd, 0x7b, 0x03, 0x1c, 0xbd,
  0x4d, 0x88, 0xab, 0x3e, 0xdc, 0xc2, 0x8e, 0x3e, 0x26, 0x38, 0x30, 0x3e,
  0xf6, 0x26, 0xa0, 0x3e, 0x61, 0xf1, 0xb4, 0x3d, 0x54, 0x3c, 0x72, 0xbe,
  0x88, 0xfd, 0xa6, 0xbc, 0xc4, 0x03, 0x04, 0xbe, 0xea, 0x3c, 0x1e, 0x3c,
  0xbe, 0xf3, 0xd5, 0x3d, 0x6a, 0xd6, 0x05, 0x3d, 0xb8, 0x4e, 0xa3, 0x3e,
  0x81, 0xa0, 0x1b, 0xbe, 0xc3, 0x12, 0x0f, 0xbe, 0x02, 0xb9, 0x25, 0x3d,
  0x5a, 0xb7, 0xda, 0xbc, 0x8c, 0x86, 0x8c, 0x3e, 0x31, 0xe9, 0xe4, 0x3d,
  0x58, 0x06, 0xa2, 0xbb, 0x6d, 0xf1, 0xca, 0x3d, 0x7a, 0x43, 0x00, 0x3e,
  0xfd, 0x5c, 0x26, 0xbe, 0x28, 0xfb, 0xb0, 0x3d, 0xde, 0x75, 0xe0, 0xbc,
  0xd3, 0x06, 0x7a, 0xbc, 0xd8, 0x35, 0xe1, 0xbc, 0x5a, 0x57, 0xf7, 0x3d,
  0x14, 0x7f, 0x70, 0x3d, 0x5a, 0xe3, 0xac, 0x3d, 0x0b, 0x6d, 0x8c, 0x3d,
  0x12, 0xd2, 0xb3, 0xbc, 0xa2, 0x8d, 0x5d, 0xbb, 0x14, 0xf0, 0xc0, 0x3d,
  0x70, 0x2c, 0x6e, 0x3c, 0xba, 0x91, 0x4d, 0x3e, 0x19, 0x13, 0x3d, 0x3e,
  0x80, 0xd3, 0xeb, 0xbd, 0x64, 0xb1, 0xd7, 0x3d, 0xbb, 0xa7, 0x1b, 0x3e,
  0x8d, 0x58, 0xb1, 0x3d, 0x29, 0x93, 0x87, 0x3e, 0xc6, 0x77, 0xb3, 0xbc,
  0x0e, 0xc3, 0x77, 0x3e, 0x6a, 0xe9, 0xc0, 0x3d, 0x1f, 0x35, 0x98, 0x3d,
  0xba, 0xbe, 0x32, 0xbe, 0x10, 0xd0, 0x85, 0x3e, 0xe2, 0xda, 0x46, 0x3c,
  0x0b, 0xa1, 0x85, 0xbe, 0x8f, 0x09, 0x08, 0xbe, 0xfa, 0x4e, 0xb6, 0x3d,
  0x43, 0xb9, 0x23, 0xbe, 0x14, 0xb7, 0x61, 0xbd, 0xf1, 0x84, 0xd4, 0x3d,
  0xaf, 0xc6, 0xe0, 0x3d, 0xbc, 0x0c, 0x94, 0xbe, 0x08, 0xd7, 0xd4, 0xbd,
  0xa7, 0xf4, 0xdf, 0xbd, 0x11, 0x27, 0x82, 0x3c, 0xbc, 0xb3, 0xa8, 0xbe,
  0x19, 0x73, 0xba, 0xbe, 0x18, 0x40, 0x0f, 0xbe, 0x25, 0xd4, 0x6a, 0x3e,
  0x77, 0x7b, 0xfc, 0xbb, 0xd1, 0x21, 0xa4, 0xbc, 0x98, 0x3b, 0x93, 0xbe,
  0x35, 0x41, 0x55, 0x3f, 0x83, 0x21, 0xb3, 0xbd, 0x94, 0xf1, 0x16, 0xbe,
  0xdb, 0xd3, 0x9e, 0x3e, 0xe8, 0x34, 0x21, 0x3d, 0xff, 0xe1, 0xf3, 0xbd,
  0x9e, 0x05, 0x88, 0xbe, 0x6f, 0x11, 0x19, 0xbe, 0x86, 0x71, 0x79, 0x3e,
  0x61, 0x79, 0x93, 0x3d, 0x63, 0xd4, 0x4a, 0xbe, 0xa6, 0x2a, 0x0a, 0xbe,
  0xd0, 0x17, 0xcd, 0x3d, 0x08, 0x37, 0xbd, 0xbc, 0x66, 0x65, 0xe0, 0x3d,
  0xe6, 0x2c, 0x8e, 0xbe, 0xb5, 0xe1, 0x59, 0x3f, 0x79, 0x58, 0x91, 0x3c,
  0xc4, 0x9a, 0x28, 0xbd, 0xcc, 0xaf, 0xa3, 0x3b, 0x9e, 0xeb, 0x43, 0x3e,
  0xc4, 0x65, 0x21, 0x3e, 0xc8, 0xb3, 0x9c, 0x3c, 0xcf, 0x0d, 0x04, 0xbe,
  0xc3, 0x41, 0x73, 0x3e, 0xac, 0xd0, 0x58, 0xbd, 0x7a, 0x8e, 0x15, 0x3e,
  0x27, 0x13, 0x61, 0xbe, 0x5f, 0x19, 0x5d, 0x3e, 0x31, 0x8e, 0x76, 0xbc,
  0xfa, 0xd0, 0xd4, 0xbd, 0x35, 0xdc, 0xce, 0xbd, 0x99, 0xa4, 0x3b, 0x3f,
  0x0e, 0x9b, 0x21, 0x3e, 0x3f, 0x7d, 0xae, 0xbd, 0xb6, 0xf3, 0x16, 0x3e,
  0xd5, 0x92, 0xc6, 0xba, 0x5c, 0xa4, 0x0c, 0xbd, 0x78, 0x64, 0x0f, 0x3e,
  0xe4, 0xeb, 0xd8, 0xbd, 0xcf, 0x52, 0x1f, 0x3e, 0x21, 0xa9, 0xcb, 0xbe,
  0xb1, 0x24, 0x5f, 0xbe, 0xa9, 0x25, 0x9b, 0xbe, 0xb1, 0xd4, 0x9c, 0x3e,
  0xa0, 0x59, 0x96, 0xbb, 0x8e, 0x53, 0x86, 0xbe, 0x39, 0x30, 0xb6, 0xbe,
  0x53, 0x99, 0xdd, 0x3e, 0xa2, 0xe9, 0x20, 0xbe, 0x51, 0xea, 0xfb, 0xbc,
  0x07, 0x10, 0x8e, 0x3e, 0xbb, 0x56, 0x3f, 0xbe, 0x25, 0xda, 0x99, 0xbd,
  0x1d, 0x1d, 0xe7, 0xbd, 0x44, 0x65, 0x2e, 0xbd, 0x73, 0xc4, 0x84, 0x3e,
  0x2f, 0xb3, 0x44, 0xbe, 0xab, 0xa9, 0x78, 0xbd, 0x40, 0x02, 0x62, 0xbd,
  0xd1, 0x9d, 0xb1, 0x3e, 0x8d, 0xb4, 0xd8, 0xbc, 0x2a, 0xbc, 0xb6, 0xbe,
  0x06, 0xbf, 0x9b, 0xbe, 0x78, 0x22, 0x3b, 0x3e, 0xd4, 0xa3, 0x8a, 0xbe,
  0x72, 0x14, 0x19, 0xbe, 0xd8, 0xb2, 0xc3, 0x3e, 0x51, 0x76, 0x1b, 0x3e,
  0x52, 0xc2, 0x9e, 0xbd, 0x92, 0x8b, 0x65, 0xbe, 0x72, 0x73, 0xb0, 0xbb,
  0x85, 0xab, 0x59, 0x3e, 0x84, 0x16, 0x30, 0xbd, 0x5e, 0xab, 0x4e, 0xbe,
  0x16, 0x41, 0x19, 0x3c, 0x37, 0xfd, 0xf9, 0xb8, 0xe4, 0xe0, 0x8e, 0x3b,
  0x42, 0x39, 0x2b, 0xbb, 0xd1, 0x8a, 0xd8, 0xbe, 0xdf, 0xd2, 0x18, 0x3e,
  0x78, 0x21, 0x01, 0xbf, 0x70, 0x40, 0xb0, 0xbd, 0x3e, 0x83, 0x54, 0x3e,
  0x90, 0xca, 0xa5, 0x3d, 0x46, 0x42, 0x24, 0xbe, 0x31, 0xe7, 0xe4, 0xbc,
  0xba, 0x4b, 0xb3, 0xbd, 0x95, 0x56, 0x0f, 0x3e, 0x09, 0xb3, 0x89, 0xbd,
  0x52, 0xb7, 0x10, 0xbd, 0x0b, 0x24, 0xdf, 0xbe, 0x34, 0xe4, 0x3e, 0xbe,
  0x09, 0xdf, 0x89, 0xbe, 0xb4, 0x8b, 0x11, 0xbf, 0x15, 0xcc, 0xac, 0x3d,
  0x24, 0x90, 0x8d, 0xbe, 0xc6, 0x29, 0xae, 0x3d, 0x3d, 0x68, 0xab, 0x3d,
  0x1b, 0x5d, 0x35, 0xbe, 0xcb, 0xc4, 0xc1, 0xbd, 0x63, 0x91, 0xc8, 0xbd,
  0x15, 0xd3, 0xea, 0x3e, 0x24, 0x4f, 0x4a, 0xbe, 0x2e, 0x37, 0x4f, 0xbe,
  0x55, 0xa5, 0x58, 0x3d, 0x39, 0x9b, 0x0d, 0xbf, 0xdd, 0xc2, 0x0a, 0xbe,
  0x53, 0x4b, 0x37, 0xbe, 0x51, 0x8c, 0xc0, 0xbe, 0x24, 0xc9, 0xc6, 0x3d,
  0x3c, 0x32, 0x8d, 0x3e, 0x9b, 0x03, 0x25, 0x3d, 0x6f, 0xeb, 0xd5, 0x3e,
  0xe5, 0x40, 0x48, 0x3e, 0xdb, 0x13, 0xbf, 0x3c, 0x2c, 0x9d, 0x36, 0x3e,
  0x6d, 0xbb, 0xef, 0xbd, 0x49, 0x0e, 0x91, 0x3e, 0x9d, 0xfb, 0x85, 0x3e,
  0x22, 0x3d, 0xfa, 0x3d, 0x56, 0x92, 0xe7, 0x3d, 0x2a, 0xb2, 0x5c, 0xbd,
  0x02, 0x3b, 0xa9, 0xbe, 0x19, 0xab, 0x4d, 0x3d, 0xbb, 0x13, 0x61, 0xbe,
  0x71, 0xc1, 0xa3, 0x3d, 0x73, 0x33, 0x79, 0x3d, 0x61, 0x0b, 0x0b, 0x3d,
  0x96, 0x5c, 0x79, 0x3e, 0x71, 0x03, 0x96, 0x3c, 0x65, 0x77, 0x29, 0x3e,
  0xba, 0x24, 0x6b, 0x3d, 0x0a, 0xae, 0x42, 0x3d, 0x1a, 0x00, 0x01, 0x3e,
  0x5b, 0x57, 0x69, 0xbd, 0xb0, 0x52, 0xeb, 0x3d, 0x4b, 0x2f, 0xaa, 0x3e,
  0x73, 0x84, 0xd0, 0xbd, 0x25, 0xd9, 0x3c, 0xbe, 0x2e, 0xfc, 0xa0, 0xbd,
  0x19, 0x62, 0xed, 0xbe, 0xdf, 0x61, 0x59, 0x3e, 0x4e, 0xb2, 0x1e, 0xbe,
  0x1e, 0x60, 0x25, 0xbe, 0x24, 0x97, 0x79, 0x3e, 0x2a, 0xd0, 0x69, 0x3e,
  0xe5, 0x29, 0x1e, 0x3e, 0xde, 0x4e, 0xa6, 0xbd, 0x00, 0xd2, 0x48, 0x3d,
  0x73, 0xce, 0xa4, 0x3e, 0xa7, 0x44, 0x33, 0xbd, 0x63, 0x42, 0x1c, 0x3e,
  0x36, 0x22, 0x5f, 0xbb, 0x58, 0xb8, 0x0e, 0x3d, 0x43, 0x4c, 0xa4, 0xbc,
  0x94, 0x24, 0x54, 0x3d, 0x17, 0xa2, 0x27, 0xbe, 0x8c, 0x75, 0xa7, 0x3e,
  0x27, 0xbb, 0xf0, 0xbd, 0x8a, 0x73, 0x83, 0xbe, 0x77, 0x1d, 0x30, 0x3e,
  0x6d, 0x26, 0x06, 0x3e, 0x56, 0x56, 0xb7, 0x3d, 0xb8, 0x67, 0x05, 0x3e,
  0xc8, 0xe5, 0x2d, 0xbe, 0x9a, 0x43, 0x9c, 0x3e, 0x5e, 0x7b, 0x43, 0x3e,
  0xba, 0xc9, 0xbf, 0xbd, 0xa3, 0xa2, 0x91, 0xbd, 0xab, 0x61, 0xa6, 0xbd,
  0x48, 0x59, 0xc0, 0xbe, 0x37, 0x1f, 0x9e, 0x3d, 0xf8, 0xd3, 0x59, 0xbe,
  0x1a, 0x94, 0xe0, 0x3d, 0x4f, 0xaa, 0xf6, 0x3d, 0xac, 0x46, 0xc3, 0xbd,
  0xb9, 0x05, 0xfd, 0xbb, 0x58, 0xef, 0xe0, 0xbd, 0x86, 0x2d, 0xaa, 0x3d,
  0x6b, 0x84, 0xc5, 0xbb, 0xc0, 0xe0, 0x32, 0xbe, 0x80, 0xa2, 0xb4, 0x3e,
  0x50, 0xa7, 0xec, 0x3d, 0x7d, 0x47, 0xcb, 0xbd, 0xea, 0x4f, 0x95, 0xbd,
  0x25, 0xfd, 0x8e, 0xbe, 0x70, 0x58, 0xdd, 0xbe, 0xbd, 0xcf, 0x25, 0xbe,
  0xde, 0x4e, 0xea, 0xbe, 0xf0, 0x21, 0x5c, 0x3e, 0xf9, 0xc9, 0x55, 0x3e,
  0xea, 0xc0, 0x84, 0x3d, 0x9f, 0x26, 0x66, 0xbd, 0x39, 0x98, 0x3f, 0x3e,
  0x32, 0xa4, 0x3a, 0x3e, 0xdf, 0x2f, 0xe7, 0xbd, 0x73, 0x88, 0x1b, 0xbd,
  0x2f, 0xca, 0xc9, 0x3e, 0xd1, 0x94, 0xe3, 0x3a, 0x3a, 0x5d, 0x9d, 0xbe,
  0xca, 0xd0, 0x9e, 0xbe, 0x89, 0x1e, 0xbe, 0xbd, 0xbd, 0x47, 0x4f, 0x3c,
  0xcd, 0x00, 0x01, 0x3e, 0xdf, 0xdd, 0x04, 0xbf, 0xfe, 0x82, 0x29, 0x3e,
  0x03, 0xdf, 0x40, 0xbe, 0xf3, 0x45, 0x3d, 0xbe, 0x05, 0x6c, 0x70, 0xbe,
  0xee, 0xf5, 0x85, 0xbe, 0x29, 0x57, 0x63, 0xbc, 0x27, 0x7c, 0xa6, 0x3c,
  0xef, 0x3e, 0xca, 0xbe, 0x7d, 0xf9, 0xcf, 0xbe, 0x31, 0x56, 0xf1, 0xbd,
  0x42, 0xde, 0xf1, 0x3e, 0xf0, 0x3d, 0x94, 0x3e, 0x3e, 0xf7, 0x41, 0x3d,
  0xf2, 0xff, 0x82, 0x3e, 0x0c, 0xbe, 0xad, 0x3d, 0x3c, 0x9d, 0x4e, 0xbf,
  0x9d, 0x70, 0x8b, 0x3e, 0xb3, 0x37, 0x22, 0x3d, 0x1c, 0x51, 0x1d, 0xbd,
  0xb6, 0xd0, 0x7e, 0x3c, 0x56, 0x2b, 0x13, 0xbe, 0x75, 0x41, 0xb6, 0xbe,
  0xf9, 0x25, 0xd7, 0x3d, 0x8d, 0x61, 0xd3, 0xbd, 0x9b, 0x58, 0x9e, 0xbe,
  0x6a, 0x4f, 0x92, 0x3d, 0xa6, 0xd7, 0xbb, 0x3e, 0xfd, 0x82, 0x97, 0x3e,
  0x40, 0x21, 0x35, 0x3e, 0xff, 0xa9, 0x6a, 0xbe, 0x08, 0x4e, 0x10, 0x3e,
  0xd1, 0x1d, 0x2e, 0xbf, 0x00, 0x19, 0xcd, 0x3e, 0x49, 0x9b, 0x50, 0x3d,
  0x64, 0xf1, 0x51, 0xbc, 0xba, 0x47, 0x32, 0x3e, 0x15, 0xb8, 0xeb, 0x3c,
  0xe7, 0x61, 0x13, 0x3e, 0x34, 0x3d, 0x8c, 0x3d, 0xa5, 0xc7, 0xfc, 0xbe,
  0x4b, 0xdc, 0xd9, 0x3a, 0xfd, 0xff, 0x41, 0xbc, 0x20, 0xd1, 0x67, 0xbd,
  0xa8, 0x3e, 0x6c, 0xbe, 0x9c, 0x98, 0xd2, 0xbc, 0xe3, 0x5c, 0x12, 0xbe,
  0xdc, 0x57, 0xeb, 0x3c, 0x44, 0xd2, 0x36, 0xbf, 0xc2, 0x9d, 0x29, 0xbd,
  0x36, 0x7c, 0x6c, 0x3e, 0xad, 0xe1, 0x98, 0x3e, 0xcc, 0x43, 0xa2, 0x3c,
  0x6a, 0x3a, 0x47, 0xbd, 0x81, 0xa7, 0x09, 0x3e, 0x3e, 0x12, 0x2a, 0x3d,
  0xee, 0x77, 0x26, 0xbf, 0x4c, 0x0b, 0x16, 0x3d, 0xaa, 0xd3, 0x0f, 0x3e,
  0x47, 0x53, 0xe6, 0xbd, 0xbd, 0xbb, 0x35, 0x3e, 0xe4, 0x80, 0xb3, 0xbd,
  0xc0, 0xa2, 0x32, 0xbd, 0xff, 0x12, 0x3b, 0x3e, 0xc9, 0x30, 0x30, 0xbf,
  0x9b, 0x81, 0xc3, 0xbc, 0xbc, 0x72, 0x04, 0xbd, 0xfe, 0xa0, 0x0c, 0xbe,
  0x54, 0xdd, 0xfa, 0x3d, 0xad, 0xce, 0xd4, 0xbd, 0xec, 0x73, 0xd1, 0x3d,
  0x76, 0x75, 0x99, 0x3d, 0xcd, 0x84, 0x54, 0xbe, 0x82, 0x4e, 0x90, 0xbe,
  0x90, 0xf8, 0x50, 0x3d, 0xc6, 0xc0, 0x6c, 0x3e, 0x1d, 0x14, 0xad, 0x3e,
  0xcc, 0xf0, 0x38, 0xbe, 0xfb, 0x06, 0xdf, 0x3d, 0x83, 0xdb, 0xcd, 0x3e,
  0xc6, 0xce, 0x08, 0xbf, 0xbf, 0x5f, 0x59, 0x3d, 0x59, 0x7f, 0x8c, 0xbb,
  0xa1, 0x58, 0x25, 0xbd, 0x4b, 0xdc, 0x9e, 0xbd, 0x70, 0x4e, 0x3f, 0xbe,
  0x83, 0x0a, 0xcb, 0x3d, 0x89, 0x5b, 0xff, 0x3d, 0xf8, 0x1f, 0xab, 0xbe,
  0x36, 0x35, 0xee, 0xba, 0xc4, 0x50, 0x83, 0x3d, 0x98, 0xf2, 0xa9, 0x3d,
  0x84, 0x52, 0x4b, 0x3e, 0x07, 0x74, 0xf8, 0xbc, 0x45, 0xc4, 0x39, 0x3d,
  0x4b, 0x1d, 0x71, 0x3d, 0xdb, 0x00, 0xb2, 0xbe, 0xdf, 0x8b, 0x96, 0x3d,
  0xc2, 0xd0, 0x7b, 0xbc, 0xad, 0x7c, 0x0f, 0xbe, 0xf6, 0x6e, 0x4f, 0xbd,
  0xdc, 0x8b, 0x0e, 0xbf, 0x78, 0x8a, 0x4e, 0x3e, 0x55, 0x44, 0xb4, 0x3d,
  0xb8, 0x07, 0xf2, 0xbd, 0x9c, 0x0a, 0x24, 0x3b, 0x63, 0xd0, 0xa5, 0x3d,
  0x95, 0xf9, 0x40, 0x3d, 0x9a, 0xb2, 0x0a, 0x3e, 0x86, 0x61, 0x44, 0xbd,
  0xa3, 0x37, 0x20, 0xbd, 0x63, 0x56, 0x4d, 0x3e, 0xcb, 0xdc, 0xdc, 0xbb,
  0x79, 0xc4, 0x91, 0xbe, 0xfc, 0x8c, 0xe9, 0xbd, 0xda, 0xb0, 0xe2, 0x3b,
  0xa1, 0x89, 0xa5, 0xbe, 0x8b, 0x52, 0x87, 0xbc, 0x15, 0xbd, 0x3d, 0x3e,
  0x29, 0x55, 0x61, 0x3e, 0x0d, 0x78, 0xcd, 0xbe, 0x84, 0x78, 0x1f, 0x3c,
  0x8f, 0xa8, 0x28, 0xbe, 0x75, 0xc1, 0x32, 0x3d, 0xd8, 0x39, 0x83, 0xbd,
  0x89, 0xca, 0xc4, 0xbe, 0x8d, 0x08, 0x9e, 0xbd, 0x84, 0x02, 0x1f, 0x3e,
  0x43, 0x89, 0xdc, 0xbc, 0xda, 0xa1, 0x44, 0x3e, 0x48, 0xdd, 0xb6, 0xbe,
  0x32, 0x12, 0x20, 0x3f, 0x9d, 0x58, 0xd1, 0xbc, 0xbe, 0xcb, 0xa7, 0xbe,
  0x05, 0x86, 0x37, 0x3e, 0x1c, 0x13, 0xc0, 0xbd, 0xbb, 0xf3, 0xa4, 0xbe,
  0x8d, 0xf1, 0xf7, 0xbd, 0xa4, 0x02, 0x2a, 0xbe, 0x93, 0x42, 0x9f, 0x3b,
  0x43, 0x8f, 0x3f, 0x3d, 0x4c, 0xe4, 0x22, 0xbd, 0xed, 0x84, 0x84, 0xbe,
  0x67, 0x06, 0x82, 0x3e, 0x82, 0x0f, 0x09, 0xbd, 0x1f, 0xf9, 0x88, 0x3e,
  0x85, 0x75, 0xac, 0xbe, 0xf1, 0xbe, 0x5d, 0x3f, 0x00, 0xa4, 0x96, 0xbe,
  0x34, 0xad, 0xa3, 0xbe, 0x07, 0x0b, 0x14, 0x3e, 0x36, 0xc3, 0x96, 0x3d,
  0x50, 0x06, 0x26, 0x3d, 0x31, 0x0c, 0x2e, 0xbd, 0x20, 0xdf, 0x94, 0xbe,
  0x36, 0xd2, 0xda, 0x3e, 0x4f, 0xc7, 0x46, 0x3e, 0x51, 0x8a, 0x6e, 0x3e,
  0xb1, 0xc9, 0x17, 0xbe, 0xce, 0x83, 0xe2, 0x3d, 0x16, 0xce, 0xc2, 0xbc,
  0x92, 0x61, 0x8e, 0x3d, 0x77, 0x50, 0x4e, 0xbe, 0x20, 0x6e, 0x66, 0x3f,
  0xd1, 0xd5, 0x92, 0xbd, 0xc7, 0xa8, 0x91, 0xbe, 0x08, 0xb1, 0x80, 0xbd,
  0x64, 0x98, 0x5b, 0x3e, 0x0f, 0x72, 0x33, 0x3e, 0xd6, 0x6b, 0x39, 0x3e,
  0x71, 0xfe, 0x7f, 0xbe, 0xb6, 0x75, 0xa8, 0x3e, 0x44, 0x1d, 0x0a, 0xbf,
  0xfa, 0x5d, 0x2e, 0x3e, 0x2b, 0xbd, 0xb9, 0xbe, 0xad, 0x6b, 0xcd, 0x3e,
  0xe6, 0x17, 0xdf, 0x3c, 0x03, 0xc3, 0x8a, 0xbe, 0x34, 0xf6, 0x5f, 0xbe,
  0xc1, 0x86, 0x06, 0x3f, 0xee, 0x46, 0x1e, 0xbe, 0xbb, 0x5b, 0x2f, 0xbe,
  0x84, 0x01, 0xa4, 0x3e, 0x7c, 0x56, 0xb7, 0xbd, 0x0c, 0x6e, 0x34, 0xbe,
  0x14, 0x22, 0x90, 0xbd, 0x9d, 0x76, 0x68, 0x3c, 0xe1, 0x6e, 0x95, 0x3e,
  0x15, 0x04, 0x0a, 0xbe, 0x21, 0xb3, 0x55, 0xbd, 0x8d, 0x05, 0x68, 0xbe,
  0x86, 0xc8, 0xdf, 0x3e, 0x01, 0xcc, 0xea, 0x3c, 0x63, 0xa5, 0x73, 0xbd,
  0x41, 0x08, 0x8c, 0xbe, 0xf3, 0x3b, 0xfe, 0x3e, 0x82, 0xc8, 0xf2, 0xbc,
  0x5c, 0x05, 0x85, 0xbe, 0xea, 0xec, 0xc4, 0x3e, 0x89, 0x2c, 0xc3, 0xbd,
  0xfa, 0xcd, 0x8b, 0xbd, 0x55, 0x55, 0x35, 0xbe, 0xb2, 0x86, 0xc6, 0xbc,
  0x5c, 0xa0, 0x58, 0xbd, 0x49, 0x8e, 0xf9, 0xbe, 0x48, 0xad, 0xe0, 0x3c,
  0xe6, 0xb6, 0x63, 0xbe, 0xd8, 0x46, 0x48, 0xbd, 0xda, 0x29, 0xf3, 0xbc,
  0x57, 0xea, 0xb0, 0xbd, 0x6a, 0x62, 0x20, 0xbe, 0xb5, 0xa9, 0xee, 0x3e,
  0x71, 0xd5, 0x87, 0xbe, 0x1f, 0x2e, 0x29, 0xbd, 0x1d, 0x5e, 0x9e, 0xbe,
  0xbb, 0x3f, 0x3e, 0xbe, 0xc1, 0x71, 0x69, 0xbd, 0xbe, 0x21, 0x27, 0x3e,
  0x6b, 0x39, 0x76, 0x3d, 0x60, 0x06, 0x26, 0x3e, 0xbe, 0x8c, 0xae, 0xbd,
  0xba, 0x5a, 0x27, 0x3e, 0x10, 0xd4, 0xfd, 0xbd, 0x34, 0x88, 0x2e, 0xbd,
  0xc2, 0x0f, 0xcf, 0xbd, 0xe6, 0xc0, 0x52, 0x3d, 0x51, 0xb2, 0xf7, 0xbc,
  0x24, 0xd3, 0xdc, 0xbd, 0x32, 0x40, 0x24, 0xbd, 0xd3, 0x8b, 0x3f, 0xbe,
  0xca, 0x2c, 0x25, 0xbe, 0x09, 0x16, 0x0d, 0xbe, 0x13, 0xea, 0x0c, 0xbe,
  0x34, 0xd2, 0x10, 0xbe, 0xd8, 0x6b, 0xaa, 0xbe, 0x3c, 0x7f, 0xb7, 0x3d,
  0x5f, 0x0f, 0x06, 0xbd, 0xc3, 0x59, 0x51, 0xbe, 0x21, 0x50, 0x32, 0xbe,
  0x0f, 0xbf, 0x8c, 0xbe, 0xab, 0x49, 0x9a, 0xbe, 0xdb, 0x66, 0xb5, 0x3d,
  0x21, 0x0d, 0x20, 0x3d, 0xb5, 0x29, 0x7b, 0xbe, 0xf4, 0x3e, 0x20, 0x3d,
  0x08, 0x1c, 0x08, 0xbe, 0xb7, 0xbd, 0x0e, 0xbd, 0x2f, 0xf5, 0x68, 0xbe,
  0x98, 0x10, 0x3c, 0xbe, 0x1a, 0xaf, 0x49, 0x3d, 0xaa, 0x56, 0x1b, 0xbe,
  0xfe, 0x03, 0xdf, 0x3d, 0x19, 0x88, 0x1e, 0xbe, 0xa2, 0x5b, 0x1e, 0xbe,
  0x3f, 0x22, 0xea, 0xbc, 0x7c, 0x63, 0x6f, 0xbd, 0x22, 0x1b, 0x52, 0x3c,
  0x32, 0x43, 0x06, 0x3d, 0xed, 0x0c, 0x86, 0x3c, 0x0d, 0x81, 0xe6, 0xbd,
  0x00, 0x0d, 0x0e, 0xbb, 0x75, 0x1b, 0x65, 0xbc, 0x82, 0x1e, 0x0d, 0xbe,
  0xca, 0xce, 0x62, 0xbe, 0x87, 0x5e, 0x85, 0xbe, 0xc9, 0xb2, 0x53, 0xbe,
  0x4b, 0xcb, 0x14, 0x3e, 0x62, 0x91, 0x9f, 0xbc, 0x5c, 0x9c, 0x48, 0x3e,
  0x83, 0x8b, 0x55, 0xbc, 0xcf, 0x1d, 0x92, 0x3d, 0x0d, 0xe4, 0xd5, 0xbd,
  0x53, 0x7b, 0xdb, 0xbd, 0x2d, 0x5c, 0x44, 0xbe, 0xe3, 0xdb, 0x21, 0xbc,
  0x4a, 0x72, 0x9b, 0x3d, 0x6a, 0x17, 0x93, 0xbd, 0xca, 0x3f, 0x0a, 0x3d,
  0x77, 0x8f, 0x78, 0xbd, 0xe0, 0x43, 0x7a, 0xbe, 0xed, 0xfb, 0xfb, 0x3d,
  0xd7, 0xe8, 0xfe, 0xbd, 0x33, 0xc4, 0xf2, 0x3d, 0xb5, 0x8c, 0x23, 0x3d,
  0x5e, 0x58, 0x8c, 0x3d, 0xc2, 0xb2, 0x1d, 0xbe, 0xde, 0x04, 0x28, 0x3c,
  0x52, 0x07, 0x5e, 0xbd, 0x61, 0x98, 0x92, 0xbc, 0xf9, 0xd1, 0x00, 0x3e,
  0x6e, 0x16, 0x81, 0xbe, 0x1b, 0x0a, 0x90, 0x3c, 0x68, 0x8b, 0x0e, 0xbe,
  0x31, 0xc3, 0x67, 0xbe, 0xa5, 0x03, 0x69, 0xbe, 0x45, 0xad, 0x44, 0xbe,
  0x69, 0xa6, 0xb5, 0xbd, 0x6e, 0x9e, 0xa5, 0x3d, 0x28, 0xc0, 0xf7, 0xbd,
  0xc0, 0x83, 0xa1, 0x3c, 0x45, 0x9f, 0xfb, 0xbd, 0x2b, 0x09, 0x08, 0x3d,
  0x1c, 0x23, 0x31, 0x3d, 0x38, 0xc4, 0x93, 0xbe, 0x03, 0x82, 0x6a, 0xbd,
  0x1f, 0xf4, 0xb9, 0x3d, 0x5c, 0x1e, 0x4a, 0xbe, 0xd6, 0x9d, 0x16, 0xbe,
  0x31, 0x50, 0xfc, 0x3d, 0x96, 0x4d, 0x5d, 0xbd, 0xc5, 0xca, 0x57, 0xbc,
  0x11, 0x73, 0x11, 0xbd, 0x1e, 0xe9, 0x3d, 0xbe, 0x3a, 0xcc, 0x00, 0xbe,
  0x94, 0xde, 0x90, 0xbe, 0x2e, 0x1b, 0x68, 0xbe, 0x68, 0x9e, 0x28, 0xbe,
  0x20, 0x37, 0xac, 0xbd, 0xf9, 0xe4, 0xab, 0x3b, 0xcf, 0xb7, 0x9f, 0xbe,
  0x27, 0x8c, 0xfa, 0xbd, 0xb5, 0x37, 0x81, 0xbe, 0x07, 0x92, 0x02, 0x3e,
  0xbd, 0x96, 0x14, 0xbe, 0x86, 0x80, 0x57, 0xbd, 0xcf, 0xf4, 0x36, 0xbe,
  0xeb, 0xa4, 0x36, 0xbd, 0xc2, 0xfc, 0x2c, 0xbe, 0xef, 0x62, 0x42, 0xbd,
  0x60, 0x7b, 0x54, 0xbe, 0x77, 0x44, 0x5c, 0xbe, 0x83, 0x26, 0x1c, 0xbd,
  0x62, 0x27, 0x72, 0x3d, 0x15, 0x6e, 0x03, 0x3d, 0xf3, 0xdc, 0x6a, 0x3e,
  0x28, 0xcb, 0x49, 0x3e, 0x75, 0x89, 0xf1, 0xbe, 0xf7, 0x00, 0x31, 0x3e,
  0x63, 0x39, 0xa8, 0xbd, 0x0b, 0x36, 0xa5, 0xbe, 0x26, 0x18, 0x7f, 0xbe,
  0x5d, 0x26, 0xa1, 0xbd, 0x38, 0xec, 0x4c, 0xbc, 0xc4, 0xde, 0x35, 0x3e,
  0x15, 0x0a, 0x86, 0xbe, 0x1a, 0x4c, 0xa9, 0xbe, 0x30, 0xb4, 0x0a, 0xbd,
  0x77, 0x62, 0x2a, 0x3e, 0x11, 0xd3, 0xb0, 0x3e, 0xdd, 0x58, 0xca, 0xbb,
  0x84, 0xd4, 0xc7, 0x3c, 0x3d, 0xbb, 0x7d, 0x3d, 0x39, 0x98, 0x04, 0xbf,
  0x79, 0xbf, 0xdb, 0x3e, 0x8e, 0xd7, 0xd4, 0xbc, 0x2e, 0xdb, 0x41, 0xbe,
  0x85, 0x62, 0x4e, 0x3e, 0x22, 0xc1, 0xb9, 0x3d, 0xa7, 0xca, 0x2f, 0xbe,
  0x7d, 0xed, 0x00, 0xbe, 0x94, 0x1e, 0x91, 0xbd, 0x3d, 0x1f, 0xbc, 0xbd,
  0x87, 0xf3, 0x72, 0x3a, 0xc8, 0x63, 0x28, 0x3e, 0x0d, 0x0e, 0x47, 0x3d,
  0x15, 0x00, 0x77, 0x3e, 0x6c, 0x21, 0x1c, 0xbe, 0x8e, 0xf6, 0x25, 0x3d,
  0x31, 0x30, 0xfd, 0xbe, 0xde, 0x01, 0xed, 0x3e, 0x46, 0xb1, 0x9d, 0xbc,
  0x67, 0x25, 0x00, 0x3c, 0x3d, 0x50, 0x73, 0xbc, 0x9a, 0x49, 0x73, 0x3b,
  0x79, 0x08, 0x64, 0x3b, 0x39, 0xd1, 0x9d, 0xbd, 0x2b, 0xc2, 0xcc, 0xbe,
  0xc0, 0xeb, 0x68, 0x3b, 0x49, 0x4b, 0x08, 0x3e, 0x24, 0x16, 0xe2, 0xbc,
  0x4c, 0x4c, 0x14, 0xbf, 0xd9, 0xdd, 0x9c, 0x3e, 0xef, 0xc5, 0x43, 0xbe,
  0x5a, 0x49, 0xd7, 0x3c, 0x74, 0x90, 0x02, 0xbf, 0x99, 0x2c, 0xf3, 0xbe,
  0x70, 0x1b, 0xe1, 0xbc, 0x46, 0x43, 0x32, 0xbe, 0xaa, 0x57, 0x44, 0x3a,
  0x8e, 0x2a, 0xbd, 0x3d, 0x3a, 0x4b, 0x3d, 0x3c, 0x70, 0x9c, 0xce, 0xbd,
  0x25, 0x55, 0xd7, 0xbe, 0x72, 0x91, 0x9f, 0xbc, 0x29, 0x23, 0x67, 0x3d,
  0xfa, 0x84, 0x37, 0x3d, 0x92, 0xe5, 0xb8, 0x3e, 0xe1, 0x4d, 0x33, 0xbd,
  0x7e, 0xbc, 0xd8, 0xbd, 0x01, 0xfb, 0xb3, 0x3d, 0xca, 0x8b, 0x0b, 0xbf,
  0x3a, 0xae, 0x69, 0x3d, 0x28, 0xb4, 0x8a, 0x3d, 0xa1, 0x42, 0x65, 0xbe,
  0xce, 0xfd, 0x22, 0xbe, 0xe4, 0xf9, 0x66, 0xbd, 0x94, 0xc3, 0x7f, 0xbd,
  0x8d, 0xbc, 0x1f, 0xbd, 0x65, 0x4a, 0xc8, 0xbe, 0xe9, 0x0a, 0x53, 0xbe,
  0xe4, 0x85, 0x3e, 0x3d, 0x82, 0x27, 0x06, 0x3e, 0xc7, 0xff, 0x9d, 0x3e,
  0x79, 0x40, 0x21, 0xbd, 0xec, 0xf7, 0x83, 0x3d, 0x9a, 0x59, 0xf5, 0x3e,
  0x29, 0xbe, 0x29, 0xbe, 0x3e, 0xb8, 0x94, 0x3d, 0x8e, 0xf5, 0x92, 0xbd,
  0xc0, 0x8f, 0x59, 0xbe, 0x65, 0x62, 0x0c, 0xbe, 0x41, 0xa6, 0xca, 0xbd,
  0x00, 0x0b, 0xd0, 0x3d, 0x67, 0x64, 0xde, 0x3c, 0xfb, 0x6e, 0xd5, 0xbe,
  0x16, 0x2c, 0x82, 0xbe, 0x54, 0x15, 0x8e, 0x3d, 0x37, 0x41, 0x0f, 0x3e,
  0xb9, 0x4c, 0xeb, 0x3d, 0x64, 0x78, 0x95, 0x3d, 0xfe, 0x8f, 0x5c, 0x3e,
  0x77, 0x81, 0xdf, 0x3d, 0x47, 0x2e, 0xb2, 0xbe, 0xdb, 0x89, 0xd4, 0x3d,
  0xe6, 0x27, 0x35, 0xbe, 0xea, 0xc6, 0x96, 0xbe, 0x96, 0x5a, 0x5b, 0xbe,
  0x61, 0x70, 0xd2, 0xbe, 0xef, 0x13, 0x05, 0xbc, 0xcb, 0x75, 0x87, 0x3d,
  0xfb, 0xd3, 0x9e, 0xbe, 0xb1, 0x9c, 0x3a, 0xbe, 0xb5, 0xfb, 0x79, 0xbd,
  0x4e, 0xca, 0x69, 0x3e, 0xf7, 0x15, 0xcc, 0x3d, 0xce, 0x99, 0xdd, 0x3d,
  0x13, 0xe4, 0xbb, 0xbe, 0x2a, 0x75, 0x85, 0xbd, 0x58, 0x03, 0x93, 0xbd,
  0x9f, 0x73, 0x56, 0xbe, 0x1d, 0x29, 0xe1, 0xbb, 0x09, 0x97, 0xa5, 0xbe,
  0xf8, 0x9c, 0x81, 0xbe, 0x2a, 0x53, 0x95, 0x3c, 0xf1, 0xa6, 0xaf, 0xbc,
  0x5a, 0x54, 0xbe, 0xbc, 0x2e, 0x8d, 0xad, 0xbe, 0x2f, 0xb6, 0x0b, 0xbe,
  0xef, 0xaa, 0x0f, 0xbd, 0x60, 0x58, 0xeb, 0x3d, 0x34, 0x8e, 0xe7, 0x3d,
  0xab, 0xf2, 0x1f, 0xbe, 0x0e, 0x0d, 0x2b, 0xbe, 0xb4, 0xf9, 0x51, 0xbc,
  0xaa, 0x74, 0x3f, 0xbe, 0x0e, 0xc4, 0x67, 0x3e, 0xe0, 0xe8, 0xa1, 0x3d,
  0xae, 0xc2, 0xb1, 0xbd, 0x4d, 0x54, 0x1c, 0xbc, 0xe9, 0x11, 0xc0, 0xbd,
  0x03, 0xfc, 0x56, 0xbc, 0xb3, 0x2d, 0x00, 0x3e, 0x20, 0xd5, 0x9d, 0x3c,
  0x40, 0x24, 0x1b, 0xb9, 0xc6, 0x26, 0xef, 0x3c, 0xd0, 0xfb, 0x2b, 0xbe,
  0xc4, 0xac, 0x31, 0xbe, 0x75, 0x56, 0x49, 0xbe, 0x04, 0x37, 0xbc, 0xbe,
  0x2e, 0xaa, 0xaf, 0xbb, 0xfe, 0x8a, 0x39, 0xbd, 0x9b, 0x14, 0x85, 0x3e,
  0x21, 0x44, 0x32, 0xbe, 0xb4, 0xa8, 0x65, 0xbe, 0x74, 0x16, 0xb6, 0x3d,
  0x7b, 0xbc, 0xc0, 0xbc, 0x49, 0x9a, 0x70, 0xbd, 0x2e, 0x21, 0x6d, 0x3c,
  0xed, 0xd7, 0xbb, 0xbd, 0xb8, 0x69, 0x37, 0x3e, 0xdd, 0x8d, 0x8b, 0x3a,
  0xa3, 0x1d, 0xd9, 0x3d, 0xab, 0x28, 0x41, 0xbe, 0x3e, 0x46, 0x41, 0xbe,
  0x4c, 0xdf, 0xa7, 0xbe, 0x2e, 0x41, 0x56, 0x3e, 0xfc, 0xa5, 0x97, 0xbe,
  0x1d, 0x4c, 0x5e, 0xbe, 0x4b, 0xbd, 0x85, 0xbd, 0x71, 0x33, 0x6b, 0xbe,
  0x66, 0x37, 0x13, 0x3e, 0x18, 0xa2, 0x4b, 0x3d, 0x53, 0x6f, 0x79, 0xbe,
  0xba, 0x45, 0x80, 0xbd, 0xd8, 0xc1, 0xb0, 0xbe, 0x80, 0x0b, 0x4e, 0xbe,
  0x4f, 0xfd, 0xd1, 0xbd, 0x8c, 0xb3, 0x7e, 0xbe, 0xe4, 0x6d, 0xa8, 0xbd,
  0x50, 0x5f, 0x87, 0xbd, 0xd8, 0x51, 0x2e, 0xbe, 0x52, 0x98, 0xc9, 0x3d,
  0x2b, 0x6e, 0x51, 0xbe, 0xc5, 0xe0, 0x18, 0x3d, 0x24, 0x3d, 0xe1, 0xbd,
  0x71, 0x6e, 0xb7, 0x3d, 0x7b, 0x5a, 0x2a, 0xbd, 0x78, 0x8b, 0xa0, 0x3d,
  0xf6, 0x72, 0x61, 0xbd, 0xa8, 0x76, 0xbd, 0xbd, 0x43, 0x9a, 0x46, 0xbe,
  0xd3, 0xb7, 0x4c, 0x3e, 0x3a, 0x31, 0xb8, 0xb9, 0xfc, 0x67, 0x12, 0x3d,
  0xa7, 0x4b, 0xfd, 0xbc, 0xaa, 0xfb, 0x4c, 0xbe, 0x83, 0xed, 0xfe, 0xbd,
  0xcf, 0xb8, 0x57, 0xbd, 0x93, 0xaa, 0x38, 0xbe, 0xaa, 0x50, 0x94, 0x3d,
  0xa7, 0xf5, 0x76, 0xbe, 0x2c, 0x82, 0x20, 0xbe, 0x9d, 0xd3, 0x87, 0x3d,
  0x9e, 0xf0, 0xae, 0x3d, 0x5f, 0x75, 0x91, 0xbd, 0x01, 0x1b, 0x96, 0xbe,
  0x4e, 0x38, 0x09, 0xbe, 0x17, 0x3e, 0x3b, 0x3d, 0x30, 0xcf, 0xaa, 0xbb,
  0x87, 0x70, 0x0f, 0x3e, 0x38, 0xed, 0x4b, 0xbe, 0x10, 0x75, 0x1d, 0xbe,
  0x8e, 0x9c, 0xba, 0x3d, 0x99, 0x53, 0xde, 0x3c, 0x72, 0x48, 0x6f, 0xbe,
  0xca, 0x46, 0x60, 0x3d, 0xab, 0x09, 0xde, 0x3c, 0x81, 0x87, 0x6f, 0xbe,
  0x60, 0x04, 0x24, 0xbe, 0x04, 0xf4, 0x41, 0xbe, 0x6e, 0xd1, 0x6b, 0xbd,
  0x7e, 0x45, 0xc3, 0x3d, 0x58, 0xaf, 0x38, 0xbe, 0x95, 0xcf, 0x80, 0xbe,
  0x41, 0x5e, 0x83, 0xbd, 0xa2, 0xfd, 0x8b, 0x3e, 0xec, 0x4c, 0x64, 0x3e,
  0x45, 0xc6, 0xa0, 0xbe, 0x00, 0xa3, 0x08, 0xbe, 0xcc, 0x7d, 0x0f, 0xbf,
  0xf2, 0x46, 0x07, 0x3d, 0x70, 0x34, 0xae, 0xbe, 0x2a, 0xea, 0x7a, 0xbe,
  0xcd, 0x36, 0x69, 0xbd, 0x21, 0x83, 0x6f, 0xbe, 0x17, 0xd9, 0xaf, 0x3d,
  0x8e, 0xee, 0xb0, 0xbe, 0x21, 0x5b, 0xa1, 0xbe, 0x7b, 0x79, 0x9e, 0x3c,
  0x75, 0xbf, 0xf8, 0x3e, 0xb3, 0xc2, 0x82, 0x3d, 0xc9, 0xe1, 0x20, 0xbe,
  0xb3, 0x44, 0x38, 0x3e, 0x66, 0x6d, 0x57, 0xbe, 0x4f, 0x6e, 0xa7, 0x3e,
  0x30, 0x17, 0x43, 0xbf, 0xde, 0x0e, 0xa4, 0x3c, 0xd6, 0x5b, 0xe2, 0xbe,
  0xca, 0xb1, 0x73, 0x3e, 0xe7, 0x02, 0x03, 0xbe, 0x17, 0x75, 0x15, 0x3c,
  0xf9, 0xd3, 0xb0, 0x3c, 0xe0, 0xfa, 0x39, 0xbf, 0xce, 0x62, 0x7b, 0x3e,
  0x0e, 0xcd, 0x22, 0x3e, 0x75, 0xc3, 0xde, 0x3e, 0x9b, 0xc9, 0xfa, 0x3c,
  0xed, 0x56, 0x6b, 0xbe, 0x88, 0x0e, 0xc2, 0xbd, 0x69, 0xa4, 0xa5, 0xbb,
  0xaa, 0xf0, 0x4d, 0x3e, 0x00, 0x03, 0xd1, 0xbe, 0x7b, 0xda, 0xdc, 0x3c,
  0xe2, 0xe6, 0x10, 0xbe, 0xe9, 0x4b, 0x8b, 0x3e, 0x4d, 0x42, 0x88, 0x3d,
  0x27, 0x37, 0x18, 0x3e, 0xac, 0xe0, 0x70, 0x3c, 0x28, 0xcb, 0x7d, 0xbe,
  0x6d, 0x77, 0x76, 0x3e, 0x98, 0xb5, 0x20, 0x3d, 0xb5, 0x6c, 0x18, 0x3f,
  0x65, 0x35, 0x8b, 0x3d, 0x10, 0x7e, 0xb9, 0xbd, 0xa5, 0xa2, 0xeb, 0x3d,
  0x5a, 0x40, 0x16, 0xbb, 0x9f, 0xdd, 0x29, 0x3e, 0xb5, 0xaf, 0x6c, 0xbe,
  0xa6, 0x1c, 0x55, 0x3d, 0x02, 0xd3, 0x96, 0x3d, 0xfd, 0xeb, 0x89, 0x3e,
  0xfd, 0xde, 0x23, 0x3e, 0x52, 0xd5, 0x40, 0x3e, 0x6d, 0xe2, 0x77, 0x3d,
  0x39, 0x47, 0xcf, 0x3d, 0xdd, 0xd9, 0x10, 0x3e, 0xfd, 0x72, 0x9e, 0x3d,
  0xd1, 0x68, 0xb4, 0x3d, 0x90, 0xe2, 0x7a, 0x3c, 0xcc, 0xfa, 0xc8, 0xbd,
  0xc9, 0x72, 0xa0, 0xbc, 0xc1, 0xaa, 0x7d, 0x3d, 0xef, 0x5e, 0x40, 0x3e,
  0xb5, 0x15, 0xa1, 0xbe, 0x1d, 0x78, 0x1b, 0x3d, 0x3b, 0x30, 0xdc, 0xbc,
  0x10, 0x99, 0x97, 0xbd, 0x5c, 0x3e, 0x3d, 0xbe, 0x77, 0x4c, 0xeb, 0xbd,
  0x82, 0x85, 0x07, 0x3e, 0x5a, 0x0b, 0xba, 0xbe, 0x1c, 0x95, 0x93, 0x3c,
  0x3d, 0x41, 0x39, 0xbd, 0x3d, 0x86, 0xb2, 0x3e, 0x18, 0x3b, 0x89, 0x3d,
  0x4d, 0x17, 0xa8, 0xbe, 0x9a, 0x20, 0x87, 0xbe, 0xa0, 0xc3, 0x17, 0x3e,
  0x4d, 0x3a, 0x96, 0x3e, 0x2c, 0x55, 0x41, 0xbe, 0xfb, 0xae, 0x83, 0x3c,
  0x23, 0x19, 0x00, 0xbe, 0x69, 0x15, 0x17, 0xbe, 0x36, 0x11, 0xd0, 0xbe,
  0x5b, 0x94, 0x03, 0x3d, 0x85, 0x3e, 0x50, 0x3e, 0x18, 0x70, 0x40, 0xbe,
  0xa3, 0x8a, 0x02, 0xbd, 0x76, 0xa4, 0xc5, 0xbd, 0xb4, 0x0e, 0x30, 0x3e,
  0xc7, 0x53, 0x12, 0x3d, 0x7d, 0x68, 0x01, 0xbf, 0x84, 0xa7, 0x5b, 0xbe,
  0x34, 0x85, 0xe3, 0xbc, 0x7f, 0xd1, 0x19, 0xbd, 0xa8, 0xff, 0xc9, 0xba,
  0xf3, 0xa1, 0x61, 0x3c, 0x3f, 0xe9, 0xdf, 0xbd, 0x01, 0xf2, 0x0a, 0x3e,
  0x74, 0x78, 0x43, 0xbe, 0x96, 0xec, 0x96, 0xbe, 0xd7, 0x10, 0xfe, 0x3d,
  0x90, 0x15, 0x05, 0xbe, 0xec, 0x82, 0x2e, 0xbe, 0xc9, 0x38, 0x4c, 0xbd,
  0x54, 0x5a, 0x62, 0x3e, 0xf7, 0x09, 0x2f, 0x3e, 0x03, 0x2d, 0x0b, 0xbf,
  0xdb, 0x09, 0xfd, 0xbe, 0xcc, 0x94, 0x83, 0xbd, 0xe0, 0x85, 0x7a, 0xbe,
  0x2a, 0xd9, 0x31, 0xbe, 0x6c, 0xe2, 0x7e, 0xbd, 0x90, 0xaf, 0xb0, 0x3c,
  0x54, 0xfb, 0x2e, 0xbe, 0xe8, 0x26, 0x83, 0xbe, 0xa4, 0xc3, 0x78, 0xbd,
  0x5c, 0xcc, 0xa4, 0xbd, 0x92, 0x08, 0x46, 0xbe, 0xb1, 0xff, 0x8f, 0xbd,
  0x3f, 0x87, 0x81, 0xbd, 0xda, 0xae, 0xe5, 0x3d, 0xf5, 0x69, 0xcd, 0x3d,
  0x9f, 0xe0, 0xae, 0x3d, 0xb3, 0xcf, 0x7c, 0x3d, 0x3c, 0x42, 0x6b, 0xbe,
  0x1b, 0xf3, 0xc0, 0xbd, 0x4c, 0x38, 0xdf, 0xbd, 0x65, 0xb5, 0xb0, 0xbe,
  0xe7, 0xef, 0xe6, 0xbd, 0x49, 0x28, 0x06, 0x3e, 0x50, 0x9c, 0x0a, 0x3e,
  0x49, 0xfe, 0x01, 0xbe, 0x26, 0x7a, 0x3c, 0xbe, 0xf8, 0xbf, 0x67, 0x3d,
  0x49, 0x91, 0x8c, 0xbd, 0x89, 0xe3, 0xa2, 0x3d, 0xc1, 0x0f, 0x1a, 0x3e,
  0x9f, 0x24, 0x0a, 0xbe, 0xe9, 0xb8, 0x58, 0x3d, 0xe2, 0x5a, 0x67, 0xbd,
  0x3c, 0xc4, 0x52, 0xbe, 0x89, 0x94, 0x3f, 0xbe, 0xc5, 0xbe, 0x52, 0xbd,
  0x75, 0x25, 0x10, 0xbe, 0x87, 0xf7, 0x32, 0x3e, 0xa6, 0x5b, 0x71, 0xba,
  0x8d, 0x27, 0xd2, 0xbd, 0x3c, 0xaa, 0x07, 0xbd, 0xd9, 0xf8, 0xb0, 0x3c,
  0xd5, 0x27, 0x53, 0xba, 0xa9, 0xec, 0x60, 0xbe, 0x7b, 0xc8, 0x8e, 0xbd,
  0x2c, 0x64, 0xeb, 0x3d, 0xf0, 0x5d, 0x16, 0xbd, 0x6a, 0xd8, 0x60, 0xbe,
  0x01, 0x15, 0x98, 0x3b, 0x04, 0x93, 0x78, 0xbe, 0xdf, 0xb6, 0xf8, 0xbd,
  0x1e, 0x2a, 0xb5, 0x3d, 0xcd, 0xc2, 0x48, 0xbe, 0xcf, 0x36, 0x09, 0x3e,
  0x99, 0x80, 0x47, 0xbe, 0x65, 0x66, 0xa8, 0xbd, 0x31, 0xc5, 0x3b, 0x3e,
  0x86, 0x7b, 0x4a, 0xbe, 0xe4, 0x17, 0x01, 0xbe, 0x68, 0x89, 0x45, 0xbe,
  0x88, 0xb5, 0x18, 0xbe, 0x8c, 0xfc, 0x11, 0xbc, 0x14, 0xca, 0x1c, 0xbe,
  0x3b, 0xed, 0x80, 0xbd, 0x9a, 0xbc, 0x39, 0xbd, 0x8a, 0x2a, 0x84, 0xbd,
  0x66, 0xf4, 0x9a, 0x3d, 0x9d, 0x8c, 0xd7, 0x3d, 0x13, 0xa2, 0xfa, 0xbd,
  0x2b, 0xaf, 0xe2, 0x3d, 0xcd, 0xcd, 0x2e, 0x3e, 0x45, 0xb5, 0x0f, 0xbe,
  0x6c, 0x59, 0xb1, 0xbc, 0xd7, 0xdf, 0x25, 0xbd, 0x50, 0x21, 0x63, 0xbe,
  0x55, 0x43, 0x0a, 0xbe, 0xed, 0x3c, 0x0c, 0x3e, 0x50, 0xe7, 0xd8, 0xbd,
  0x2a, 0x41, 0x73, 0xbe, 0x34, 0x9b, 0x20, 0xbe, 0x34, 0xf4, 0x3a, 0x3d,
  0x51, 0x16, 0x15, 0x3d, 0xa0, 0x16, 0xc3, 0xbc, 0x09, 0xbc, 0xca, 0xbb,
  0x64, 0xec, 0x34, 0xbe, 0x8f, 0xa3, 0x26, 0xbe, 0xef, 0x59, 0x97, 0xbc,
  0x63, 0x1d, 0xe2, 0xbd, 0x52, 0x52, 0x4f, 0x3d, 0x42, 0x69, 0x18, 0xbd,
  0xde, 0xbd, 0xaa, 0xbc, 0xd6, 0x04, 0xf2, 0xbd, 0x42, 0x2c, 0x1f, 0xbe,
  0xad, 0x08, 0xb5, 0xbd, 0xac, 0x84, 0xac, 0xbd, 0x59, 0xaa, 0xca, 0x3d,
  0xbc, 0x57, 0x5e, 0x3d, 0x52, 0xaf, 0x47, 0xbe, 0xfe, 0x8e, 0x0d, 0xbe,
  0x7f, 0x25, 0x0c, 0xbe, 0xc5, 0x65, 0x2c, 0xbe, 0x8b, 0xa8, 0xd4, 0xbc,
  0x8f, 0xd2, 0x3d, 0x3c, 0x93, 0x68, 0xaf, 0xbd, 0xbf, 0xf2, 0xaf, 0x3d,
  0x28, 0x0f, 0xe8, 0x3c, 0xcc, 0x5f, 0x90, 0xbd, 0x76, 0x79, 0xe8, 0xbd,
  0xdb, 0xaf, 0xb8, 0xbd, 0x90, 0x54, 0xf3, 0xbd, 0xc9, 0xfe, 0x3e, 0xbe,
  0xec, 0xdb, 0x05, 0xbe, 0x55, 0xed, 0xf8, 0x3b, 0x60, 0x24, 0xc6, 0xbd,
  0x46, 0xfe, 0xff, 0xff, 0x10, 0x00, 0x00, 0x00, 0x05, 0x00, 0x00, 0x00,
  0x14, 0x00, 0x00, 0x00, 0x2c, 0x00, 0x00, 0x00, 0x02, 0x00, 0x00, 0x00,
  0x10, 0x00, 0x00, 0x00, 0x70, 0x00, 0x00, 0x00, 0x17, 0x00, 0x00, 0x00,
  0x73, 0x65, 0x71, 0x75, 0x65, 0x6e, 0x74, 0x69, 0x61, 0x6c, 0x2f, 0x64,
  0x65, 0x6e, 0x73, 0x65, 0x2f, 0x4d, 0x61, 0x74, 0x4d, 0x75, 0x6c, 0x00,
  0x34, 0xfe, 0xff, 0xff, 0x2a, 0xff, 0xff, 0xff, 0x04, 0x00, 0x00, 0x00,
  0x08, 0x00, 0x00, 0x00, 0xff, 0xff, 0xff, 0xff, 0x70, 0x00, 0x00, 0x00,
  0x00, 0x00, 0x0e, 0x00, 0x18, 0x00, 0x08, 0x00, 0x07, 0x00, 0x0c, 0x00,
  0x10, 0x00, 0x14, 0x00, 0x0e, 0x00, 0x00, 0x00, 0x00, 0x00, 0x00, 0x02,
  0x10, 0x00, 0x00, 0x00, 0x04, 0x00, 0x00, 0x00, 0x10, 0x00, 0x00, 0x00,
  0x2c, 0x00, 0x00, 0x00, 0x01, 0x00, 0x00, 0x00, 0x02, 0x00, 0x00, 0x00,
  0x18, 0x00, 0x00, 0x00, 0x73, 0x65, 0x71, 0x75, 0x65, 0x6e, 0x74, 0x69,
  0x61, 0x6c, 0x2f, 0x66, 0x6c, 0x61, 0x74, 0x74, 0x65, 0x6e, 0x2f, 0x43,
  0x6f, 0x6e, 0x73, 0x74, 0x00, 0x00, 0x00, 0x00, 0x9c, 0xfe, 0xff, 0xff,
  0x92, 0xff, 0xff, 0xff, 0x04, 0x00, 0x00, 0x00, 0x10, 0x00, 0x00, 0x00,
  0x92, 0xec, 0x41, 0xc0, 0xc2, 0x01, 0xcc, 0x3f, 0x3c, 0x41, 0xef, 0xbf,
  0x16, 0x06, 0x78, 0x3f, 0x0a, 0xff, 0xff, 0xff, 0x10, 0x00, 0x00, 0x00,
  0x03, 0x00, 0x00, 0x00, 0x10, 0x00, 0x00, 0x00, 0x3c, 0x00, 0x00, 0x00,
  0x01, 0x00, 0x00, 0x00, 0x04, 0x00, 0x00, 0x00, 0x29, 0x00, 0x00, 0x00,
  0x73, 0x65, 0x71, 0x75, 0x65, 0x6e, 0x74, 0x69, 0x61, 0x6c, 0x2f, 0x64,
  0x65, 0x6e, 0x73, 0x65, 0x5f, 0x31, 0x2f, 0x42, 0x69, 0x61, 0x73, 0x41,
  0x64, 0x64, 0x2f, 0x52, 0x65, 0x61, 0x64, 0x56, 0x61, 0x72, 0x69, 0x61,
  0x62, 0x6c, 0x65, 0x4f, 0x70, 0x00, 0x00, 0x00, 0x60, 0xff, 0xff, 0xff,
  0x00, 0x00, 0x06, 0x00, 0x08, 0x00, 0x04, 0x00, 0x06, 0x00, 0x00, 0x00,
  0x04, 0x00, 0x00, 0x00, 0x40, 0x00, 0x00, 0x00, 0x87, 0x97, 0x1d, 0x40,
  0x8b, 0x05, 0x5f, 0x3f, 0x9a, 0x5e, 0xc1, 0x40, 0x94, 0xaa, 0x5a, 0x3f,
  0x41, 0x3b, 0x2d, 0xbe, 0x31, 0xcd, 0x76, 0xbe, 0xa9, 0x57, 0x9d, 0xbf,
  0xd2, 0x92, 0x81, 0x3d, 0x2f, 0x18, 0xb5, 0x3e, 0x07, 0x63, 0x4d, 0x3e,
  0x72, 0x2f, 0xac, 0x40, 0x2d, 0x8a, 0x48, 0xbe, 0x11, 0x24, 0x10, 0x3d,
  0xc8, 0x22, 0x5a, 0xbd, 0x55, 0xf4, 0x8b, 0x40, 0xbd, 0xdf, 0x81, 0xbe,
  0xae, 0xff, 0xff, 0xff, 0x10, 0x00, 0x00, 0x00, 0x02, 0x00, 0x00, 0x00,
  0x10, 0x00, 0x00, 0x00, 0x3c, 0x00, 0x00, 0x00, 0x01, 0x00, 0x00, 0x00,
  0x10, 0x00, 0x00, 0x00, 0x27, 0x00, 0x00, 0x00, 0x73, 0x65, 0x71, 0x75,
  0x65, 0x6e, 0x74, 0x69, 0x61, 0x6c, 0x2f, 0x64, 0x65, 0x6e, 0x73, 0x65,
  0x2f, 0x42, 0x69, 0x61, 0x73, 0x41, 0x64, 0x64, 0x2f, 0x52, 0x65, 0x61,
  0x64, 0x56, 0x61, 0x72, 0x69, 0x61, 0x62, 0x6c, 0x65, 0x4f, 0x70, 0x00,
  0x04, 0x00, 0x06, 0x00, 0x04, 0x00, 0x00, 0x00, 0x00, 0x00, 0x0e, 0x00,
  0x14, 0x00, 0x04, 0x00, 0x00, 0x00, 0x08, 0x00, 0x0c, 0x00, 0x10, 0x00,
  0x0e, 0x00, 0x00, 0x00, 0x10, 0x00, 0x00, 0x00, 0x01, 0x00, 0x00, 0x00,
  0x1c, 0x00, 0x00, 0x00, 0x2c, 0x00, 0x00, 0x00, 0x04, 0x00, 0x00, 0x00,
  0x01, 0x00, 0x00, 0x00, 0x40, 0x00, 0x00, 0x00, 0x03, 0x00, 0x00, 0x00,
  0x01, 0x00, 0x00, 0x00, 0x0c, 0x00, 0x00, 0x00, 0x63, 0x6f, 0x6e, 0x76,
  0x32, 0x64, 0x5f, 0x69, 0x6e, 0x70, 0x75, 0x74, 0x00, 0x00, 0x00, 0x00,
  0xfc, 0xff, 0xff, 0xff, 0x04, 0x00, 0x04, 0x00, 0x04, 0x00, 0x00, 0x00
};
unsigned int _home_ee2405_ee2405_mbed_7_model_model_tflite_len = 12384;
